<pad>	0
<s>	0
</s>	0
<unk>	0
[MASK]	0
▁ک	-0
▁ا	-1
▁ہ	-2
▁م	-3
▁کی	-4
یں	-5
▁ب	-6
▁س	-7
▁ت	-8
▁پ	-9
نی	-10
▁ہی	-11
ری	-12
▁ج	-13
یی	-14
▁د	-15
▁ن	-16
ان	-17
▁ہو	-18
ور	-19
▁میں	-20
▁کا	-21
لی	-22
▁و	-23
▁سی	-24
▁گ	-25
ھی	-26
▁کر	-27
▁ر	-28
▁اس	-29
تی	-30
ار	-31
▁کو	-32
▁ی	-33
وں	-34
▁ہی۔	-35
لا	-36
تا	-37
▁ای	-38
▁ہیں	-39
▁ان	-40
▁نہ	-41
یا	-42
▁چ	-43
▁خ	-44
▁ل	-45
نا	-46
▁یہ	-47
▁اور	-48
▁ش	-49
ام	-50
▁ف	-51
ال	-52
ات	-53
▁ع	-54
▁نی	-55
▁ح	-56
▁پر	-57
ھا	-58
▁نہیں	-59
سی	-60
▁کہ	-61
ست	-62
▁تو	-63
▁جا	-64
▁ق	-65
اک	-66
▁بھی	-67
▁اپ	-68
می	-69
ای	-70
▁رہ	-71
اہ	-72
▁وہ	-73
▁دی	-74
▁ٹ	-75
▁ایک	-76
▁ہیں۔	-77
▁کیا	-78
اد	-79
▁ہم	-80
ند	-81
▁لی	-82
اری	-83
اب	-84
▁ص	-85
▁ہوں	-86
▁بی	-87
▁ز	-88
یر	-89
ایی	-90
▁ط	-91
▁پاک	-92
▁تھی	-93
اں	-94
▁جو	-95
▁دو	-96
لہ	-97
ین	-98
▁پہ	-99
▁تھا	-100
کھ	-101
▁ڈ	-102
▁اب	-103
از	-104
رو	-105
ستان	-106
▁گی	-107
▁پی	-108
انی	-109
نگ	-110
▁بہ	-111
▁اپنی	-112
▁گا	-113
ھر	-114
دی	-115
▁پاکستان	-116
▁می	-117
▁لیی	-118
ول	-119
▁رو	-120
کی	-121
▁خو	-122
▁وا	-123
ڑی	-124
▁مع	-125
▁رہی	-126
▁ال	-127
ون	-128
ٹی	-129
لم	-130
▁بہت	-131
▁ٹی	-132
مت	-133
▁سو	-134
گی	-135
▁مل	-136
قت	-137
گر	-138
دہ	-139
چھ	-140
▁مو	-141
را	-142
▁کویی	-143
▁بات	-144
رف	-145
▁گیی	-146
▁سک	-147
▁سب	-148
▁تھی۔	-149
▁لو	-150
قی	-151
▁گیا	-152
▁کچھ	-153
بی	-154
▁اج	-155
▁غ	-156
▁چاہ	-157
▁۔	-158
▁اسی	-159
وی	-160
اتھ	-161
▁کم	-162
▁کام	-163
▁جی	-164
رد	-165
▁لا	-166
کن	-167
▁مج	-168
سٹ	-169
▁ری	-170
سا	-171
▁کرنی	-172
▁اد	-173
▁مح	-174
▁جب	-175
▁من	-176
▁کھ	-177
▁فی	-178
ما	-179
▁کرتا	-180
▁لوگ	-181
▁ام	-182
کو	-183
▁دوس	-184
▁بر	-185
▁رہا	-186
▁ہوتا	-187
فی	-188
▁ہوتی	-189
▁مس	-190
اح	-191
مہ	-192
▁ض	-193
▁ایی	-194
وری	-195
▁کسی	-196
▁بھ	-197
▁تھا۔	-198
▁ہماری	-199
است	-200
نڈ	-201
▁ہویی	-202
▁مق	-203
▁وقت	-204
▁عم	-205
▁تع	-206
رح	-207
▁پھر	-208
▁لگ	-209
خت	-210
یز	-211
▁کرتی	-212
▁کرنا	-213
ران	-214
ورت	-215
کہ	-216
▁شک	-217
▁اف	-218
ود	-219
شن	-220
▁چھ	-221
اس	-222
▁ساتھ	-223
▁لیکن	-224
▁اع	-225
▁نظ	-226
ٹر	-227
▁ہوا	-228
▁با	-229
▁یا	-230
▁جایی	-231
رب	-232
▁ہوں۔	-233
▁قو	-234
▁ہر	-235
جی	-236
نیا	-237
▁مش	-238
▁دیا	-239
دا	-240
لو	-241
▁ذ	-242
کر	-243
▁جان	-244
▁جن	-245
▁بن	-246
▁والی	-247
▁جس	-248
▁رکھ	-249
▁چاہیی	-250
▁نو	-251
▁تم	-252
▁در	-253
▁مت	-254
▁میری	-255
▁ملک	-256
رین	-257
▁مجھی	-258
اف	-259
▁دیکھ	-260
الی	-261
▁بع	-262
▁دل	-263
▁تک	-264
جہ	-265
▁ہونی	-266
▁کب	-267
▁تر	-268
کا	-269
▁وی	-270
▁گا۔	-271
▁دنیا	-272
چی	-273
▁سر	-274
▁جاتا	-275
کل	-276
▁پہلی	-277
کھا	-278
▁بنا	-279
▁انت	-280
▁حکو	-281
لیی	-282
▁تی	-283
▁اخ	-284
لام	-285
زی	-286
▁ٹیم	-287
لاف	-288
▁جاتی	-289
ادی	-290
مال	-291
کٹ	-292
▁فیص	-293
▁اچ	-294
انا	-295
رت	-296
▁بعد	-297
شی	-298
▁یہاں	-299
▁اگر	-300
▁حکومت	-301
قع	-302
▁اللہ	-303
▁ہونا	-304
دار	-305
▁زیا	-306
▁یہی	-307
اص	-308
▁ایسا	-309
مب	-310
▁تھ	-311
▁مط	-312
رہ	-313
▁سم	-314
▁گی۔	-315
فا	-316
▁ڈی	-317
▁طرح	-318
امی	-319
انہ	-320
▁ایسی	-321
▁بڑ	-322
▁زیادہ	-323
▁دور	-324
▁اح	-325
▁دوسری	-326
لات	-327
ہر	-328
▁پس	-329
ارہ	-330
▁بد	-331
▁سکتی	-332
لق	-333
▁سام	-334
▁انس	-335
▁انہ	-336
عی	-337
پی	-338
▁سال	-339
وٹ	-340
ستا	-341
▁ات	-342
▁کیلیی	-343
ولی	-344
▁کار	-345
در	-346
ارا	-347
شت	-348
ارت	-349
▁بڑی	-350
▁کپ	-351
▁نیی	-352
▁پڑ	-353
▁چی	-354
▁نام	-355
لاق	-356
▁است	-357
▁صرف	-358
▁ور	-359
▁اص	-360
یں۔	-361
▁ضر	-362
▁تح	-363
▁گز	-364
تم	-365
رم	-366
▁جہ	-367
▁سمج	-368
▁کیی	-369
▁اٹ	-370
▁سن	-371
▁نا	-372
ستانی	-373
▁بج	-374
▁او	-375
▁کہا	-376
▁بار	-377
▁خان	-378
جود	-379
▁پسند	-380
روع	-381
▁طرف	-382
▁شروع	-383
▁کبھی	-384
ڈی	-385
▁فیصلہ	-386
▁وز	-387
▁بیٹ	-388
مین	-389
▁پہن	-390
▁تب	-391
▁پاکستانی	-392
▁لیا	-393
▁چاہیی۔	-394
▁اک	-395
اسی	-396
اہر	-397
▁اہ	-398
▁فلم	-399
یرا	-400
▁ار	-401
▁بل	-402
▁کس	-403
فر	-404
▁کیوں	-405
کم	-406
▁لوگوں	-407
▁کریں	-408
▁سیاست	-409
صی	-410
▁سکتا	-411
احب	-412
▁مذ	-413
ندگی	-414
▁صاحب	-415
یاں	-416
نٹ	-417
▁سیاسی	-418
▁اپنا	-419
▁کرو	-420
ریف	-421
▁مد	-422
▁سوچ	-423
▁نظر	-424
▁اسلام	-425
▁چل	-426
▁ضرورت	-427
▁فر	-428
▁پیدا	-429
ثر	-430
▁از	-431
بت	-432
مان	-433
سو	-434
کار	-435
▁دن	-436
▁مسلم	-437
▁مر	-438
▁ہمیں	-439
▁حال	-440
ٹری	-441
اتی	-442
▁طور	-443
روں	-444
▁مگر	-445
جو	-446
▁امری	-447
▁کری	-448
▁ہوگ	-449
▁استع	-450
▁خود	-451
▁دیتی	-452
▁گھر	-453
▁شکست	-454
حی	-455
▁خلاف	-456
▁انسان	-457
▁مخت	-458
ییں	-459
▁گر	-460
گہ	-461
اید	-462
▁تاری	-463
▁معام	-464
▁،	-465
▁فای	-466
▁بند	-467
▁بح	-468
نس	-469
ایم	-470
▁انگ	-471
▁خیا	-472
کس	-473
▁بچ	-474
▁چیز	-475
صہ	-476
عت	-477
ایل	-478
ہور	-479
▁تاریخ	-480
بر	-481
ہی	-482
▁باری	-483
سک	-484
رار	-485
▁کل	-486
لڈ	-487
▁کھی	-488
▁کرکٹ	-489
▁نہیں۔	-490
سم	-491
▁صورت	-492
▁فو	-493
▁سمجھ	-494
▁سامنی	-495
▁زندگی	-496
▁استعمال	-497
▁جنگ	-498
▁ختم	-499
▁ملا	-500
▁جہاں	-501
▁پہنچ	-502
اج	-503
ریز	-504
▁کیسی	-505
▁شام	-506
▁خوش	-507
لف	-508
▁عد	-509
▁علم	-510
▁قومی	-511
▁ٹیسٹ	-512
بہ	-513
▁کرا	-514
▁خط	-515
ضی	-516
نج	-517
▁یو	-518
▁بنی	-519
▁مص	-520
▁مسی	-521
لان	-522
▁تق	-523
▁انہیں	-524
▁اتی	-525
▁کون	-526
وار	-527
▁مہ	-528
▁جگہ	-529
ندی	-530
▁کھلا	-531
▁وجہ	-532
با	-533
▁قان	-534
▁نواز	-535
▁گھ	-536
▁چکی	-537
صو	-538
ایت	-539
▁مذہ	-540
▁بھر	-541
▁شر	-542
فت	-543
▁ریاست	-544
نہ	-545
▁اند	-546
▁علی	-547
▁علا	-548
▁معا	-549
▁بس	-550
▁چھو	-551
نک	-552
قہ	-553
▁گاڑی	-554
▁عام	-555
الات	-556
▁پیش	-557
▁بھارت	-558
▁عو	-559
▁مختلف	-560
شیا	-561
ورٹ	-562
لیم	-563
▁مار	-564
کھی	-565
▁جیسی	-566
▁موجود	-567
وز	-568
تنی	-569
مپ	-570
مد	-571
نوں	-572
▁پوری	-573
▁وہاں	-574
▁تج	-575
▁خیال	-576
بار	-577
▁شہ	-578
▁اچھی	-579
▁کرد	-580
▁سوال	-581
اصل	-582
▁حاصل	-583
▁میرا	-584
لز	-585
لط	-586
▁قب	-587
▁قی	-588
ٹریلی	-589
▁بال	-590
▁جانی	-591
▁دینی	-592
ڑا	-593
▁گو	-594
▁انڈ	-595
▁غیر	-596
▁عمل	-597
▁پاس	-598
▁پری	-599
▁باز	-600
▁تمام	-601
وت	-602
▁نم	-603
▁پو	-604
▁نک	-605
▁قانون	-606
▁متع	-607
▁شو	-608
▁روز	-609
سن	-610
ڈر	-611
▁بڑھ	-612
▁شریف	-613
▁امی	-614
▁بھا	-615
▁سفر	-616
▁پار	-617
▁کھلاڑی	-618
ظم	-619
▁پھ	-620
▁لاہور	-621
▁اق	-622
▁کمی	-623
سپ	-624
وم	-625
▁مز	-626
▁رنگ	-627
▁رہتی	-628
وع	-629
▁اض	-630
▁لیگ	-631
▁تعلق	-632
لس	-633
شہ	-634
▁اچھا	-635
ابل	-636
یات	-637
▁مسلمان	-638
ریب	-639
▁زب	-640
▁ما	-641
▁عال	-642
▁فوج	-643
▁مست	-644
▁اباد	-645
▁ہاتھ	-646
▁ٹھ	-647
▁تین	-648
▁کراچی	-649
▁سپ	-650
▁نق	-651
▁خوب	-652
▁وہی	-653
▁قیمت	-654
▁جاری	-655
پنی	-656
▁ایا	-657
▁جمہ	-658
▁حق	-659
▁منا	-660
▁میچ	-661
▁مسیلہ	-662
▁انتظ	-663
بو	-664
▁گیی۔	-665
سر	-666
▁عوام	-667
دت	-668
▁پرو	-669
▁جاییں	-670
▁رکھتا	-671
▁مخ	-672
▁پا	-673
▁جمہوری	-674
▁دوسروں	-675
▁بدل	-676
▁بلکہ	-677
▁جواب	-678
▁موقع	-679
▁ورلڈ	-680
▁تن	-681
▁واپ	-682
▁دوست	-683
▁دکھا	-684
▁شع	-685
▁مری	-686
▁دونوں	-687
▁لگا	-688
▁منظ	-689
▁ٹھی	-690
ایر	-691
▁دان	-692
▁کھا	-693
▁مف	-694
▁وزیر	-695
غیر	-696
▁کش	-697
ابق	-698
▁ناک	-699
▁والا	-700
ورو	-701
▁ڈال	-702
▁قرار	-703
▁کہاں	-704
▁ظ	-705
قین	-706
ڈیا	-707
▁مث	-708
لینڈ	-709
▁یاد	-710
لب	-711
▁تا	-712
▁دع	-713
▁ھی	-714
▁بتا	-715
▁سما	-716
▁افری	-717
▁قیا	-718
▁مدد	-719
▁خر	-720
▁دھ	-721
▁ارد	-722
▁شاہ	-723
▁اگی	-724
▁نظام	-725
ثی	-726
▁مان	-727
اروں	-728
▁انی	-729
▁کوش	-730
▁باہر	-731
▁کہیں	-732
جیی	-733
▁جما	-734
صور	-735
ورا	-736
▁تمہ	-737
▁کامیا	-738
بال	-739
▁جل	-740
نل	-741
▁تبدی	-742
تان	-743
▁حصہ	-744
▁کھیل	-745
▁سیریز	-746
▁کمپنی	-747
اکی	-748
دان	-749
سوس	-750
▁اقت	-751
▁قوم	-752
▁اٹھا	-753
▁قایم	-754
▁ٹھیک	-755
▁صح	-756
▁کوشش	-757
▁جماعت	-758
▁اسٹریلی	-759
▁قد	-760
▁اعلان	-761
▁رایی	-762
▁انداز	-763
زم	-764
▁ماہ	-765
▁ابھی	-766
▁فاینل	-767
اع	-768
دید	-769
▁مض	-770
▁کہتی	-771
اہم	-772
▁واقع	-773
کمل	-774
▁چند	-775
▁کہہ	-776
▁شامل	-777
▁شکار	-778
▁مکمل	-779
▁فت	-780
▁حالات	-781
▁وس	-782
▁رات	-783
▁کردیا	-784
▁نکل	-785
▁امریکہ	-786
اہی	-787
▁مقد	-788
▁پڑی	-789
▁بینک	-790
ییر	-791
▁دا	-792
▁ڈھ	-793
▁دیتا	-794
▁عر	-795
لوم	-796
▁چین	-797
▁کتا	-798
▁رہتا	-799
▁میڈیا	-800
▁ترین	-801
▁سکی	-802
▁ساری	-803
▁ث	-804
الت	-805
▁مشکل	-806
▁خری	-807
لت	-808
▁حی	-809
انچ	-810
ندہ	-811
مالک	-812
▁ڈاک	-813
▁شاید	-814
▁ممالک	-815
بل	-816
▁بجلی	-817
▁بہتر	-818
▁بیان	-819
ریک	-820
ٹس	-821
ستی	-822
ودی	-823
▁ڈر	-824
▁چھوڑ	-825
▁ہمارا	-826
▁جھ	-827
روری	-828
▁چھٹ	-829
کش	-830
نٹی	-831
▁اگ	-832
پورٹ	-833
▁لگی	-834
مل	-835
▁مطال	-836
▁عمران	-837
▁معاملہ	-838
من	-839
▁چلی	-840
▁ادمی	-841
گو	-842
▁واپس	-843
▁ہوا۔	-844
▁ہوگا	-845
▁باتیں	-846
سین	-847
▁اظ	-848
▁شخ	-849
▁انہوں	-850
فاظ	-851
▁اخت	-852
▁بڑا	-853
▁مزی	-854
▁لم	-855
میان	-856
▁خواہ	-857
▁متعلق	-858
▁درمیان	-859
▁یوں	-860
▁ضروری	-861
شل	-862
طی	-863
مز	-864
▁حو	-865
▁عملی	-866
▁اٹھ	-867
▁ایس	-868
▁دلچ	-869
مای	-870
ہار	-871
▁وال	-872
▁تھیں	-873
▁جمہوریت	-874
اؤ	-875
▁حل	-876
▁دہ	-877
▁عب	-878
امات	-879
▁ہاں	-880
▁اتنی	-881
▁زبان	-882
کان	-883
▁تیار	-884
▁چیمپ	-885
▁عالمی	-886
▁ماح	-887
وہ	-888
ادت	-889
▁خاص	-890
▁خیر	-891
▁مذہب	-892
▁کتنی	-893
رز	-894
▁شی	-895
▁فط	-896
▁علاق	-897
▁لگتا	-898
▁مزید	-899
کری	-900
▁پولی	-901
▁الی	-902
▁نتی	-903
▁بیٹھ	-904
▁خام	-905
▁قوت	-906
▁ملی	-907
▁پنج	-908
▁اداک	-909
▁اندر	-910
▁ایشیا	-911
اییں	-912
▁اسٹی	-913
▁سنا	-914
▁پاب	-915
بات	-916
خاب	-917
مبر	-918
▁معم	-919
▁چار	-920
▁مسایل	-921
▁مطابق	-922
▁اقتدار	-923
▁انتخاب	-924
عہ	-925
▁لڑ	-926
▁کان	-927
میر	-928
▁اصل	-929
▁حکم	-930
▁معاش	-931
▁یقین	-932
امد	-933
ونی	-934
ییی	-935
▁تش	-936
▁باقی	-937
▁کارو	-938
▁روایت	-939
▁چاہتی	-940
حال	-941
خلاف	-942
▁خوف	-943
▁پانچ	-944
لاح	-945
▁سع	-946
▁اوپ	-947
▁موسم	-948
بح	-949
کت	-950
ارتی	-951
لامی	-952
▁ہند	-953
▁دورہ	-954
▁محسوس	-955
افی	-956
مباب	-957
▁ساز	-958
▁زمباب	-959
▁کن	-960
▁غلط	-961
▁معی	-962
▁گیا۔	-963
ادر	-964
راد	-965
ستہ	-966
▁کتاب	-967
▁دوسرا	-968
ونکہ	-969
▁عمر	-970
▁پیپ	-971
▁اردو	-972
▁انتہ	-973
▁تعلیم	-974
▁معلوم	-975
ارف	-976
کرد	-977
▁اسٹ	-978
▁ایم	-979
▁دیں	-980
▁چکا	-981
▁پرانی	-982
▁کپتان	-983
سیم	-984
نسی	-985
▁احت	-986
▁ادا	-987
▁جاپ	-988
▁ریس	-989
▁چلا	-990
▁کوی	-991
▁ترقی	-992
▁کردی	-993
▁دیکھا	-994
▁پنجاب	-995
لاحی	-996
▁بول	-997
▁سعودی	-998
افہ	-999
▁نش	-1000
▁فران	-1001
▁پہلا	-1002
▁اضافہ	-1003
ندر	-1004
▁اعت	-1005
▁دیگر	-1006
▁مطلب	-1007
قیق	-1008
وبی	-1009
ٹرو	-1010
▁مغ	-1011
▁مم	-1012
▁اہم	-1013
▁باع	-1014
کردگی	-1015
▁راست	-1016
اط	-1017
ہیں	-1018
▁نیا	-1019
▁خراب	-1020
▁دینا	-1021
▁کافی	-1022
▁ہاکی	-1023
▁پارٹی	-1024
▁چیمپین	-1025
▁اغ	-1026
▁رس	-1027
▁ایل	-1028
▁ذری	-1029
▁لکھ	-1030
▁پانی	-1031
▁ہوگی	-1032
▁رکھتی	-1033
▁بحث	-1034
▁کارکردگی	-1035
▁شہری	-1036
▁مذہبی	-1037
کٹر	-1038
▁سچ	-1039
▁ہوج	-1040
▁بغیر	-1041
▁عدالت	-1042
▁ماحول	-1043
▁چیزوں	-1044
▁صورتحال	-1045
▁اخر	-1046
▁تیل	-1047
▁شہر	-1048
▁گزر	-1049
شا	-1050
▁ھ	-1051
دور	-1052
▁خار	-1053
▁خدا	-1054
▁صبح	-1055
▁پیپلز	-1056
▁تبدیلی	-1057
زا	-1058
رہی	-1059
ماری	-1060
میشہ	-1061
▁اعظم	-1062
▁انکھ	-1063
▁لیتی	-1064
▁ڈاکٹر	-1065
▁کردار	-1066
▁کیخلاف	-1067
▁زمبابوی	-1068
سٹر	-1069
میت	-1070
▁باعث	-1071
▁اش	-1072
▁بز	-1073
▁حقی	-1074
▁اواز	-1075
▁کہنا	-1076
▁انسانی	-1077
▁شب	-1078
▁فکر	-1079
▁پیچ	-1080
▁جیسا	-1081
▁تحقیق	-1082
▁کھانا	-1083
▁جاسک	-1084
▁رکھی	-1085
▁گرین	-1086
▁پولیس	-1087
▁کامیاب	-1088
ؤں	-1089
ثیت	-1090
▁اکثر	-1091
▁ٹھنڈ	-1092
وا	-1093
▁دین	-1094
▁راہ	-1095
▁روح	-1096
لاقات	-1097
▁قیادت	-1098
▁ہمیشہ	-1099
▁انتظار	-1100
ورس	-1101
▁قدر	-1102
▁قسم	-1103
حا	-1104
حق	-1105
▁پورا	-1106
▁بنانی	-1107
وس	-1108
داد	-1109
▁حسن	-1110
▁امید	-1111
▁جانا	-1112
▁منظر	-1113
▁پایی	-1114
▁اداری	-1115
پا	-1116
▁فض	-1117
▁چو	-1118
▁تیز	-1119
▁جیت	-1120
ید	-1121
تنا	-1122
کشن	-1123
▁ایف	-1124
▁سور	-1125
▁کھل	-1126
▁کی۔	-1127
▁بھایی	-1128
▁حیثیت	-1129
▁اسلامی	-1130
▁دار	-1131
▁ذمہ	-1132
▁صحت	-1133
▁ونڈ	-1134
▁اغاز	-1135
▁رکھا	-1136
▁رہی۔	-1137
▁ظاہر	-1138
▁ملاقات	-1139
▁رق	-1140
▁خبر	-1141
▁جانب	-1142
چا	-1143
غان	-1144
▁جذ	-1145
▁حض	-1146
▁اثر	-1147
▁تھو	-1148
▁تیس	-1149
▁گرد	-1150
▁حسین	-1151
▁اظہار	-1152
▁کہانی	-1153
تہ	-1154
▁عرب	-1155
▁لیں	-1156
▁علما	-1157
▁یونی	-1158
▁پیچھی	-1159
▁انگلینڈ	-1160
رل	-1161
▁فٹ	-1162
یاری	-1163
▁انص	-1164
فظ	-1165
وال	-1166
▁ون	-1167
▁امت	-1168
▁خرید	-1169
▁قران	-1170
▁اسٹریلیا	-1171
لوں	-1172
ینس	-1173
▁بلا	-1174
▁لای	-1175
▁نتیجہ	-1176
خو	-1177
ٹا	-1178
ڑک	-1179
ساس	-1180
▁ذکر	-1181
▁فار	-1182
▁ممکن	-1183
▁تعالی	-1184
▁جنوبی	-1185
الب	-1186
▁بت	-1187
▁بک	-1188
انوں	-1189
▁ایش	-1190
▁ماضی	-1191
▁مثال	-1192
▁مفاد	-1193
▁افراد	-1194
▁افغان	-1195
ادہ	-1196
شتہ	-1197
ضوع	-1198
لاش	-1199
ونٹ	-1200
▁اتا	-1201
▁اہل	-1202
▁باو	-1203
▁اتنا	-1204
▁تلاش	-1205
▁مقاب	-1206
تر	-1207
ٹو	-1208
▁رہیں	-1209
▁مستق	-1210
▁رکھنی	-1211
▁فرانس	-1212
حان	-1213
روف	-1214
▁رح	-1215
▁زم	-1216
▁طا	-1217
▁نف	-1218
▁این	-1219
▁دکھایی	-1220
کارڈ	-1221
▁دیر	-1222
▁فری	-1223
▁پیر	-1224
▁معاملات	-1225
▁الگ	-1226
▁سڑک	-1227
▁مجھ	-1228
▁ٹیکس	-1229
▁انصاف	-1230
▁بالکل	-1231
▁بنایی	-1232
▁تحریک	-1233
اڑ	-1234
ضح	-1235
طہ	-1236
جیب	-1237
ساب	-1238
▁حر	-1239
▁سط	-1240
▁روش	-1241
▁محض	-1242
▁مرح	-1243
▁کیس	-1244
▁احمد	-1245
▁زمین	-1246
▁واضح	-1247
▁ازادی	-1248
▁تھیں۔	-1249
▁دلچسپ	-1250
▁ذریعی	-1251
▁رپورٹ	-1252
▁باوجود	-1253
▁مظ	-1254
▁ہد	-1255
▁باد	-1256
▁ریکارڈ	-1257
نگی	-1258
▁ذہ	-1259
▁سات	-1260
▁پھی	-1261
▁گزار	-1262
▁خواہش	-1263
ربن	-1264
▁پک	-1265
▁دوب	-1266
▁قابل	-1267
▁چاہتا	-1268
▁بیماری	-1269
▁دیکھیی	-1270
▁کاروبار	-1271
اؤس	-1272
گار	-1273
▁غم	-1274
▁بنگ	-1275
▁فرو	-1276
▁ٹور	-1277
▁بازی	-1278
▁بچوں	-1279
▁جارہ	-1280
▁لگتی	-1281
▁گزری	-1282
▁ہاؤس	-1283
▁ناکام	-1284
نت	-1285
راز	-1286
ریہ	-1287
▁نس	-1288
▁سرف	-1289
▁فٹبال	-1290
▁معیشت	-1291
صد	-1292
لیٹ	-1293
▁جرم	-1294
▁شخص	-1295
▁مرت	-1296
▁مقب	-1297
▁یور	-1298
ورونا	-1299
▁اخری	-1300
▁عجیب	-1301
▁منصو	-1302
▁گرمی	-1303
▁ہندو	-1304
▁جنہیں	-1305
▁حقیقت	-1306
ظی	-1307
منٹ	-1308
کنا	-1309
تیار	-1310
▁داری	-1311
▁فیفا	-1312
▁مضبو	-1313
▁انگری	-1314
▁موضوع	-1315
▁ہوگیی	-1316
▁افریقہ	-1317
ایع	-1318
وظ	-1319
▁اؤ	-1320
▁سہ	-1321
▁باب	-1322
▁متح	-1323
▁روپی	-1324
▁طاقت	-1325
▁محمد	-1326
▁میدان	-1327
▁والوں	-1328
▁کیونکہ	-1329
شنل	-1330
ویل	-1331
ڈیو	-1332
▁فن	-1333
▁ہز	-1334
رافی	-1335
▁شوق	-1336
▁فون	-1337
▁منہ	-1338
▁ہمت	-1339
▁یار	-1340
▁فتوی	-1341
▁وزیرا	-1342
▁بو	-1343
▁حک	-1344
▁پڑھ	-1345
▁گیس	-1346
▁قبول	-1347
▁بھارتی	-1348
ایش	-1349
بوں	-1350
ترین	-1351
▁پیغ	-1352
▁ترتی	-1353
▁جاپان	-1354
▁کاربن	-1355
▁بہترین	-1356
جا	-1357
عظم	-1358
سایی	-1359
▁بچی	-1360
▁تاہم	-1361
▁سلام	-1362
▁ونڈوز	-1363
▁بنیادی	-1364
دود	-1365
رات	-1366
کیٹ	-1367
لایی	-1368
▁سید	-1369
▁جایز	-1370
▁بنیاد	-1371
▁پابندی	-1372
رض	-1373
سب	-1374
ٹن	-1375
حیح	-1376
▁را	-1377
استی	-1378
سٹری	-1379
▁دلی	-1380
▁سطح	-1381
▁کرپ	-1382
▁کمز	-1383
▁گرو	-1384
▁بجایی	-1385
▁سماجی	-1386
▁فایدہ	-1387
▁گاڑیوں	-1388
فہ	-1389
لاب	-1390
لاں	-1391
ھار	-1392
▁انع	-1393
▁بیا	-1394
▁وفا	-1395
▁لاکھ	-1396
▁ٹایم	-1397
▁چاہی	-1398
▁گیمز	-1399
▁بنگلہ	-1400
▁حوالی	-1401
▁راستہ	-1402
▁انگریزی	-1403
ربی	-1404
▁تص	-1405
▁وط	-1406
یاتی	-1407
▁ویب	-1408
لاحیت	-1409
▁جنرل	-1410
▁ملکی	-1411
اہد	-1412
وعی	-1413
یا۔	-1414
▁لہ	-1415
▁بعض	-1416
▁سخت	-1417
▁صدر	-1418
▁مصن	-1419
▁جبکہ	-1420
▁لینڈ	-1421
▁ویسٹ	-1422
▁اسانی	-1423
▁چھٹایی	-1424
▁ہاتھوں	-1425
ظر	-1426
وق	-1427
ظیم	-1428
وٹر	-1429
انوی	-1430
مایہ	-1431
گرام	-1432
▁تحت	-1433
▁ثاب	-1434
▁درد	-1435
▁سای	-1436
▁اخلا	-1437
▁بنتی	-1438
▁سرمایہ	-1439
ٹل	-1440
ازہ	-1441
▁وطن	-1442
▁اعلی	-1443
▁شاہد	-1444
▁محبت	-1445
▁سمجھا	-1446
▁سرفراز	-1447
▁صلاحیت	-1448
وف	-1449
ازی	-1450
باد	-1451
وزی	-1452
کاری	-1453
▁شاع	-1454
▁فرق	-1455
▁خامو	-1456
▁خوشی	-1457
▁وایر	-1458
▁ویسی	-1459
▁جانتی	-1460
▁بدترین	-1461
▁کورونا	-1462
▁"	-1463
ریر	-1464
▁چڑ	-1465
▁گل	-1466
▁سنگ	-1467
▁سیاح	-1468
▁عادت	-1469
▁کشمیر	-1470
ہری	-1471
▁یک	-1472
امیہ	-1473
▁رقم	-1474
▁بیٹی	-1475
▁جدید	-1476
▁ڈایی	-1477
▁بنایا	-1478
▁مستقبل	-1479
دیم	-1480
▁اط	-1481
▁لط	-1482
▁دست	-1483
▁سرب	-1484
▁طری	-1485
▁لمح	-1486
▁مول	-1487
▁سوشل	-1488
▁ضرور	-1489
▁مریض	-1490
▁چلتی	-1491
▁روشنی	-1492
▁چھوٹی	-1493
▁کرپشن	-1494
▁طب	-1495
▁جسی	-1496
▁ہو۔	-1497
▁بھول	-1498
▁تصور	-1499
▁ثابت	-1500
▁خواب	-1501
▁انڈیز	-1502
▁سامان	-1503
▁کھانی	-1504
▁اخلاقی	-1505
▁یونیورس	-1506
فیت	-1507
▁ووٹ	-1508
▁بڑھا	-1509
▁نکال	-1510
▁پھول	-1511
▁جانور	-1512
▁دوران	-1513
▁وایرس	-1514
▁افریدی	-1515
حد	-1516
گز	-1517
انک	-1518
▁جز	-1519
▁رخ	-1520
فاظت	-1521
ییں۔	-1522
▁منت	-1523
▁ہسپ	-1524
▁میں۔	-1525
▁چییر	-1526
▁تقسیم	-1527
▁دوبارہ	-1528
▁‘	-1529
لیز	-1530
ناہ	-1531
▁جم	-1532
▁جلد	-1533
▁مجم	-1534
▁ٹام	-1535
▁کوچ	-1536
▁انٹر	-1537
▁فطری	-1538
▁لینا	-1539
▁جانتا	-1540
▁پہنچی	-1541
▁وزیراعظم	-1542
▁چا	-1543
▁کھو	-1544
▁ہار	-1545
▁حکمت	-1546
▁لیتا	-1547
▁اصلاح	-1548
▁امکان	-1549
▁امریکی	-1550
▁انتظامیہ	-1551
زل	-1552
مق	-1553
نز	-1554
اند	-1555
اکہ	-1556
لیہ	-1557
ندھ	-1558
▁خد	-1559
لمان	-1560
▁ایج	-1561
▁بلی	-1562
▁بین	-1563
▁جسم	-1564
▁حیر	-1565
▁پڑا	-1566
▁لینی	-1567
▁ملنی	-1568
▁اختلاف	-1569
▁تمہاری	-1570
▁دیکھنی	-1571
▁کھلاڑیوں	-1572
پر	-1573
جات	-1574
ریا	-1575
اییک	-1576
ریشن	-1577
▁گلی	-1578
▁لکھا	-1579
▁ٹینس	-1580
▁گییں	-1581
▁الفاظ	-1582
▁انتہا	-1583
▁تمہیں	-1584
▁مضبوط	-1585
▁معاشی	-1586
▁پروگرام	-1587
باح	-1588
دال	-1589
دگی	-1590
راف	-1591
لسل	-1592
مار	-1593
▁سا	-1594
▁دعوت	-1595
▁ایمان	-1596
▁علاوہ	-1597
▁مارکیٹ	-1598
راہ	-1599
▁صن	-1600
▁مک	-1601
▁انق	-1602
▁برط	-1603
▁سلی	-1604
▁متا	-1605
▁نقص	-1606
▁سایی	-1607
▁سماج	-1608
▁شعور	-1609
▁بتایا	-1610
▁لگایی	-1611
▁مقدمہ	-1612
▁سوالات	-1613
▁چییرمین	-1614
▁انتخابات	-1615
قف	-1616
تای	-1617
قات	-1618
ورڈ	-1619
▁طی	-1620
▁سنی	-1621
▁حالت	-1622
▁کرلی	-1623
▁احساس	-1624
▁جایی۔	-1625
▁فیصلی	-1626
▁مغربی	-1627
▁اختیار	-1628
وب	-1629
▁عز	-1630
چھلی	-1631
▁انھ	-1632
▁اوپن	-1633
▁پریش	-1634
▁بحران	-1635
▁کیفیت	-1636
بھ	-1637
صر	-1638
قل	-1639
ٹھی	-1640
▁حم	-1641
▁دس	-1642
▁رج	-1643
▁سٹ	-1644
▁صد	-1645
▁یی	-1646
صوصی	-1647
▁روک	-1648
▁عرو	-1649
▁مقر	-1650
▁نیک	-1651
صورتی	-1652
▁سورج	-1653
▁قدرت	-1654
▁نوجو	-1655
▁پالی	-1656
▁بیٹھی	-1657
▁ترتیب	-1658
▁راستی	-1659
▁علاقہ	-1660
▁متحدہ	-1661
▁کیجیی	-1662
▁خوبصورتی	-1663
اق	-1664
بتہ	-1665
شریف	-1666
ندوں	-1667
▁اصف	-1668
▁داخ	-1669
▁دای	-1670
▁الحق	-1671
▁کمپی	-1672
▁اقبال	-1673
▁البتہ	-1674
▁فراہم	-1675
▁معاشری	-1676
▁نوازشریف	-1677
ژن	-1678
▁زیر	-1679
▁محف	-1680
▁کا۔	-1681
▁گرم	-1682
▁گفت	-1683
▁ادھر	-1684
▁طالب	-1685
▁فلموں	-1686
ذا	-1687
ڈل	-1688
تال	-1689
عنی	-1690
قاد	-1691
▁عہ	-1692
▁وع	-1693
▁امن	-1694
▁ایر	-1695
▁خاط	-1696
▁دھر	-1697
▁سی۔	-1698
▁تاکہ	-1699
▁رہنی	-1700
▁عالم	-1701
▁عرصی	-1702
▁وسلم	-1703
▁کروں	-1704
▁گویا	-1705
▁یعنی	-1706
▁اسٹیٹ	-1707
▁سلمان	-1708
▁نقصان	-1709
▁پرندی	-1710
▁انکھوں	-1711
▁کامیابی	-1712
ابر	-1713
جان	-1714
نات	-1715
▁رد	-1716
▁دعا	-1717
▁شادی	-1718
▁صحیح	-1719
▁ڈالر	-1720
▁ٹرافی	-1721
▁یونیورسٹی	-1722
انس	-1723
انگ	-1724
ایب	-1725
▁بری	-1726
▁دھو	-1727
▁سٹی	-1728
▁رکھنا	-1729
▁الیکشن	-1730
▁جاسکتا	-1731
جد	-1732
سہ	-1733
جاج	-1734
ربہ	-1735
لاس	-1736
▁وڈ	-1737
▁باک	-1738
▁بجٹ	-1739
▁خال	-1740
▁صلی	-1741
▁مشر	-1742
▁بنتا	-1743
▁دلیل	-1744
▁دیا۔	-1745
▁رہا۔	-1746
▁قدیم	-1747
▁ملاز	-1748
▁ڈیسک	-1749
▁باتوں	-1750
▁تیسری	-1751
▁حفاظت	-1752
▁روانہ	-1753
▁متاثر	-1754
▁مزدور	-1755
▁مشہور	-1756
▁احتجاج	-1757
▁اداکار	-1758
▁اندازہ	-1759
▁خاندان	-1760
▁علاقوں	-1761
▁نوجوان	-1762
▁افغانستان	-1763
جر	-1764
گل	-1765
▁'	-1766
لوی	-1767
▁لٹ	-1768
▁نر	-1769
▁ٹو	-1770
▁برد	-1771
▁مال	-1772
▁مثبت	-1773
▁مخال	-1774
▁نکلی	-1775
▁کھڑی	-1776
▁ہزار	-1777
▁گزشتہ	-1778
▁کمپیوٹر	-1779
اض	-1780
▁انا	-1781
▁غور	-1782
▁پہچ	-1783
ارفین	-1784
▁مرتبہ	-1785
▁صارفین	-1786
ضہ	-1787
ڈا	-1788
رفت	-1789
قید	-1790
کیل	-1791
ہی۔	-1792
ینہ	-1793
فیکٹ	-1794
▁امر	-1795
▁دیش	-1796
▁زرد	-1797
▁میر	-1798
▁پتہ	-1799
▁ایکس	-1800
▁بزنس	-1801
▁لیڈر	-1802
▁مزاج	-1803
▁مقرر	-1804
▁منزل	-1805
▁وجود	-1806
▁پلان	-1807
▁پہاڑ	-1808
▁یورپ	-1809
▁اضافی	-1810
▁تنقید	-1811
▁خصوصی	-1812
▁ٹھنڈی	-1813
▁کمزور	-1814
▁اسٹریلین	-1815
▁’	-1816
ریت	-1817
▁صف	-1818
جودہ	-1819
▁گول	-1820
▁بورڈ	-1821
▁بھری	-1822
▁اخبار	-1823
▁تعداد	-1824
▁ریلیز	-1825
▁کبھار	-1826
▁ہویی۔	-1827
▁موجودہ	-1828
▁انج	-1829
▁حاد	-1830
▁سزا	-1831
▁سلس	-1832
▁رحمت	-1833
▁فطرت	-1834
▁ہوگیا	-1835
ہم	-1836
ارم	-1837
تاد	-1838
دوں	-1839
▁دش	-1840
▁رک	-1841
▁مرک	-1842
ساییڈ	-1843
▁ارام	-1844
▁ترجی	-1845
▁توجہ	-1846
▁خارج	-1847
▁درخت	-1848
▁دیدی	-1849
▁سونی	-1850
▁شخصی	-1851
▁شرکت	-1852
▁قریب	-1853
▁چاند	-1854
▁کتنا	-1855
▁بیانی	-1856
▁معمول	-1857
▁مقبول	-1858
▁امریکا	-1859
▁خاموشی	-1860
▁پالیسی	-1861
▁اکساییڈ	-1862
▁چیمپینز	-1863
جھ	-1864
بیت	-1865
ویں	-1866
▁خز	-1867
ھایی	-1868
▁ارب	-1869
▁برت	-1870
▁دفا	-1871
▁دیی	-1872
▁سبب	-1873
▁لفظ	-1874
▁مند	-1875
▁ازاد	-1876
▁براہ	-1877
▁غریب	-1878
▁فلاں	-1879
▁برابر	-1880
▁تبدیل	-1881
▁فروخت	-1882
▁انعقاد	-1883
وان	-1884
▁وو	-1885
▁ہل	-1886
▁جنم	-1887
▁درو	-1888
▁سسٹ	-1889
▁امیر	-1890
▁لمبی	-1891
▁مالی	-1892
▁ورنہ	-1893
▁مصباح	-1894
▁پچھلی	-1895
▁گفتگو	-1896
▁انڈسٹری	-1897
قا	-1898
باب	-1899
شتی	-1900
ٹنگ	-1901
چری	-1902
▁زخ	-1903
▁اسک	-1904
▁اقد	-1905
▁برس	-1906
▁تصو	-1907
▁جون	-1908
▁رہن	-1909
▁شدت	-1910
▁شری	-1911
▁فتح	-1912
▁فرد	-1913
▁متو	-1914
▁اگلی	-1915
▁بارش	-1916
▁بالی	-1917
▁توقع	-1918
▁حضرت	-1919
▁خاطر	-1920
▁درست	-1921
▁عروج	-1922
▁میسر	-1923
▁نمای	-1924
▁چینی	-1925
▁استاد	-1926
▁ترجیح	-1927
▁سنچری	-1928
▁ہدایت	-1929
▁سربراہ	-1930
▁معمولی	-1931
▁ناکامی	-1932
▁پیداوار	-1933
۔۔	-1934
دین	-1935
صاب	-1936
لتھ	-1937
▁اذ	-1938
ترال	-1939
رایی	-1940
صورت	-1941
قرار	-1942
▁تنا	-1943
▁شان	-1944
▁ویک	-1945
▁کلب	-1946
▁انڈی	-1947
▁بھٹو	-1948
▁تیزی	-1949
▁جلدی	-1950
▁علاج	-1951
▁قیام	-1952
▁محنت	-1953
▁نظری	-1954
▁علاقی	-1955
▁چترال	-1956
▁انٹرنی	-1957
▁سٹریلی	-1958
کپ	-1959
ختی	-1960
▁حص	-1961
ابطہ	-1962
▁طلب	-1963
▁یقی	-1964
▁درجہ	-1965
▁سابق	-1966
▁مسلسل	-1967
فتی	-1968
متی	-1969
▁فل	-1970
▁ٹک	-1971
اتین	-1972
اہوں	-1973
▁افو	-1974
▁برا	-1975
▁زور	-1976
▁سری	-1977
▁لوٹ	-1978
▁ماب	-1979
▁مسا	-1980
▁نور	-1981
▁اییں	-1982
▁ایی۔	-1983
▁زندہ	-1984
▁سندھ	-1985
▁ضایع	-1986
▁عرصہ	-1987
▁فکری	-1988
▁مسجد	-1989
▁پڑتا	-1990
▁پیسی	-1991
▁بیٹنگ	-1992
▁تھوڑی	-1993
▁تیاری	-1994
▁واقعہ	-1995
▁انقلاب	-1996
▁تاریخی	-1997
▁تعلقات	-1998
▁خواتین	-1999
▁روحانی	-2000
▁سرکاری	-2001
▁معاملی	-2002
صل	-2003
امہ	-2004
کام	-2005
▁بخ	-2006
ایتی	-2007
ینات	-2008
▁الز	-2009
▁خطر	-2010
▁روس	-2011
▁صاف	-2012
▁عدم	-2013
▁عزم	-2014
▁ترکی	-2015
▁طلاق	-2016
▁موقف	-2017
▁کروڑ	-2018
▁فلمیں	-2019
▁روایتی	-2020
▁مقابلی	-2021
لک	-2022
سپی	-2023
▁خاک	-2024
▁سکا	-2025
▁ارمی	-2026
▁تحریر	-2027
▁جایزہ	-2028
▁زمانہ	-2029
▁نیوزی	-2030
▁اداروں	-2031
زن	-2032
صب	-2033
مک	-2034
این	-2035
زمی	-2036
فیہ	-2037
ورہ	-2038
ڈرڈ	-2039
کمہ	-2040
▁تس	-2041
▁زر	-2042
▁نز	-2043
انیہ	-2044
اہمی	-2045
بتلا	-2046
نایی	-2047
ہرست	-2048
▁امد	-2049
▁خلی	-2050
▁لطف	-2051
▁بیٹس	-2052
▁حساب	-2053
▁دانش	-2054
▁سکیں	-2055
▁عامر	-2056
▁نفرت	-2057
▁کرکی	-2058
▁کمری	-2059
▁اچانک	-2060
▁تصویر	-2061
▁مبتلا	-2062
▁پابند	-2063
▁پیشکش	-2064
▁پیغام	-2065
▁گھنٹی	-2066
▁انتہایی	-2067
▁انسانوں	-2068
▁کمپنیوں	-2069
▁مسلمانوں	-2070
لش	-2071
اشت	-2072
طور	-2073
▁مب	-2074
▁اجت	-2075
▁ذرا	-2076
▁روی	-2077
▁قبل	-2078
▁ٹای	-2079
▁اسکو	-2080
▁لاین	-2081
▁چلتا	-2082
▁عبدال	-2083
▁ویلتھ	-2084
▁ہوتی۔	-2085
▁برداشت	-2086
▁برقرار	-2087
▁حکمران	-2088
▁خات	-2089
▁دبا	-2090
▁سپر	-2091
▁قدم	-2092
▁کیم	-2093
▁اسان	-2094
▁بھی۔	-2095
▁دلچسپی	-2096
زب	-2097
جوم	-2098
راض	-2099
منی	-2100
مود	-2101
▁چن	-2102
بادل	-2103
ریبا	-2104
سٹرن	-2105
سکتی	-2106
▁اسپ	-2107
▁بیل	-2108
▁حلق	-2109
▁روا	-2110
▁طوف	-2111
▁معذ	-2112
▁ویز	-2113
▁ٹیک	-2114
▁پتا	-2115
▁ہنگ	-2116
▁اوپر	-2117
▁بلند	-2118
▁تازہ	-2119
▁جنون	-2120
▁دییی	-2121
▁سرگر	-2122
▁سسٹم	-2123
▁سمیت	-2124
▁صنعت	-2125
▁مقصد	-2126
▁ملیں	-2127
▁مہنگ	-2128
▁واحد	-2129
▁کاری	-2130
▁گاؤں	-2131
▁اخلاق	-2132
▁املیٹ	-2133
▁طریقہ	-2134
▁مسترد	-2135
▁واقعی	-2136
▁کھیلا	-2137
▁ایفیکٹ	-2138
▁تقریبا	-2139
▁جاییں۔	-2140
▁زرداری	-2141
▁قیمتیں	-2142
▁مطالعہ	-2143
▁اداکارہ	-2144
جن	-2145
طل	-2146
وش	-2147
اتح	-2148
فرد	-2149
ناک	-2150
گیا	-2151
ماعی	-2152
▁تری	-2153
▁دکھ	-2154
▁ذہن	-2155
▁ممب	-2156
▁منی	-2157
▁ناق	-2158
▁یون	-2159
▁طویل	-2160
▁علیہ	-2161
▁چایی	-2162
▁محدود	-2163
▁محفوظ	-2164
▁مقامی	-2165
▁منفرد	-2166
▁انسانیت	-2167
▁جماعتوں	-2168
▁سف	-2169
▁دھا	-2170
▁ہیرو	-2171
▁اثرات	-2172
غی	-2173
ٹھ	-2174
چہ	-2175
ڈو	-2176
بھی	-2177
لہا	-2178
مبا	-2179
ندن	-2180
ہوں	-2181
لوجی	-2182
وارڈ	-2183
▁ایڈ	-2184
▁سبز	-2185
▁صدی	-2186
▁ضیا	-2187
▁عید	-2188
▁لبر	-2189
▁مصر	-2190
▁منق	-2191
▁مین	-2192
▁نسل	-2193
▁ٹوٹ	-2194
▁اسکی	-2195
▁اییر	-2196
▁بھرو	-2197
▁تھری	-2198
▁سکی۔	-2199
▁شعبی	-2200
▁عظیم	-2201
▁قاری	-2202
▁میاں	-2203
▁نامی	-2204
▁پڑتی	-2205
▁کامن	-2206
▁کورٹ	-2207
▁ہفتی	-2208
▁ادایی	-2209
▁ایشین	-2210
▁برامد	-2211
▁بیٹھا	-2212
▁عبادت	-2213
▁محمود	-2214
▁مرحلی	-2215
▁مہمان	-2216
▁کررہی	-2217
▁ایوارڈ	-2218
▁مقابلہ	-2219
▁مقامات	-2220
▁بیٹسمین	-2221
▁دیکھیی۔	-2222
▁سٹریلیا	-2223
▁ہندوستان	-2224
دد	-2225
سٹک	-2226
لمی	-2227
لنج	-2228
چھا	-2229
▁لب	-2230
ٹروی	-2231
▁زلز	-2232
▁شای	-2233
▁شنا	-2234
▁ناف	-2235
▁نصی	-2236
▁پلا	-2237
▁چھا	-2238
▁ایین	-2239
▁خانہ	-2240
▁دلکش	-2241
▁رہنا	-2242
▁چھٹی	-2243
▁چیلنج	-2244
▁کرکٹر	-2245
▁اعتبار	-2246
▁دوستوں	-2247
▁اجتماعی	-2248
▁خوبصورت	-2249
ریم	-2250
▁تہ	-2251
▁ڈا	-2252
▁ایٹ	-2253
▁اختر	-2254
▁بحالی	-2255
▁سامنا	-2256
▁مقدمی	-2257
اپ	-2258
پہ	-2259
افت	-2260
انت	-2261
حاد	-2262
حاظ	-2263
دیک	-2264
میٹ	-2265
ویت	-2266
پار	-2267
ڈیم	-2268
▁زی	-2269
▁وض	-2270
مبلی	-2271
وامی	-2272
▁ارت	-2273
▁بھگ	-2274
▁تنہ	-2275
▁جاؤ	-2276
▁جنا	-2277
▁زدہ	-2278
▁سلط	-2279
▁سیر	-2280
▁طبی	-2281
▁عقل	-2282
▁ماس	-2283
ربایی	-2284
پارٹی	-2285
▁اصول	-2286
▁اظہر	-2287
▁سنبھ	-2288
▁سیکھ	-2289
▁لحاظ	-2290
▁ملتی	-2291
▁موسی	-2292
▁وسیم	-2293
▁کمال	-2294
▁کیمپ	-2295
▁کینی	-2296
▁گھوم	-2297
▁افسوس	-2298
▁جارہا	-2299
▁خوشبو	-2300
▁سمجھی	-2301
▁سمندر	-2302
▁طوفان	-2303
▁فہرست	-2304
▁مانتی	-2305
▁محکمہ	-2306
▁ملتان	-2307
▁مناسب	-2308
▁نزدیک	-2309
▁ٹیموں	-2310
▁پرندہ	-2311
▁پریکٹ	-2312
▁احتساب	-2313
▁امتحان	-2314
▁اپریشن	-2315
▁حکومتی	-2316
▁دیکھتی	-2317
▁اذربایی	-2318
▁اقدامات	-2319
▁برطانوی	-2320
▁پیپلزپارٹی	-2321
تل	-2322
حہ	-2323
اتا	-2324
رنگ	-2325
نڈی	-2326
ویز	-2327
▁دب	-2328
تایج	-2329
ودار	-2330
▁ایپ	-2331
▁بیچ	-2332
▁ریٹ	-2333
▁شکر	-2334
▁گور	-2335
▁ارہی	-2336
▁استح	-2337
▁الود	-2338
▁خطرہ	-2339
▁علام	-2340
▁وسطی	-2341
▁کھڑا	-2342
▁کیا۔	-2343
▁ابادی	-2344
▁انگلش	-2345
▁اہمیت	-2346
▁زمانی	-2347
▁مسیلی	-2348
▁پہچان	-2349
▁پریشان	-2350
ذب	-2351
لوب	-2352
مایش	-2353
▁ووڈ	-2354
▁بولی	-2355
▁سارا	-2356
▁سازی	-2357
▁سینی	-2358
▁مقدم	-2359
▁نشان	-2360
▁دیجیی	-2361
▁فنکار	-2362
▁وزارت	-2363
▁ازمایش	-2364
▁شاندار	-2365
طر	-2366
و۔	-2367
چر	-2368
امل	-2369
ایا	-2370
ایق	-2371
سای	-2372
ولت	-2373
ڈنگ	-2374
▁بگ	-2375
تماد	-2376
ردست	-2377
سکتا	-2378
▁افس	-2379
▁اون	-2380
▁بان	-2381
▁برب	-2382
▁راز	-2383
▁سرخ	-2384
▁شرم	-2385
▁شہز	-2386
▁فیس	-2387
▁مٹی	-2388
▁نفا	-2389
▁کوہ	-2390
▁ہنس	-2391
انایی	-2392
▁بارہ	-2393
▁بننی	-2394
▁تایی	-2395
▁خطری	-2396
▁سنتا	-2397
▁شدید	-2398
▁لازم	-2399
▁لبرل	-2400
▁لندن	-2401
▁ماہر	-2402
▁ٹرین	-2403
▁ہایی	-2404
▁احباب	-2405
▁انکار	-2406
▁بڑھتی	-2407
▁تجربہ	-2408
▁تشکیل	-2409
▁حقایق	-2410
▁خارجہ	-2411
▁درامد	-2412
▁رجحان	-2413
▁سالوں	-2414
▁سوایی	-2415
▁شخصیت	-2416
▁لکھنی	-2417
▁لگانی	-2418
▁معذرت	-2419
▁نوکری	-2420
▁کمیٹی	-2421
▁اسمبلی	-2422
▁اعتماد	-2423
▁انگریز	-2424
▁سمجھتی	-2425
▁متبادل	-2426
▁ملازمت	-2427
▁اداییگی	-2428
▁توانایی	-2429
افظ	-2430
دری	-2431
▁تف	-2432
تمام	-2433
ینٹی	-2434
▁اتر	-2435
▁قتل	-2436
▁واب	-2437
▁گری	-2438
▁انتق	-2439
▁فاتح	-2440
▁قاید	-2441
▁انھوں	-2442
▁جارہی	-2443
▁نتایج	-2444
▁اہتمام	-2445
▁سمجھنی	-2446
▁علامات	-2447
▁قیمتوں	-2448
▁استحکام	-2449
بیا	-2450
▁سوی	-2451
▁وبا	-2452
▁جنگل	-2453
▁ماری	-2454
▁اہستہ	-2455
▁سپریم	-2456
▁شکریہ	-2457
▁ہوتا۔	-2458
تھ	-2459
ذر	-2460
رگ	-2461
شر	-2462
احت	-2463
راپ	-2464
ھیر	-2465
ہیز	-2466
▁جر	-2467
▁ست	-2468
▁فخ	-2469
▁لن	-2470
▁پن	-2471
ادری	-2472
صادی	-2473
طلاح	-2474
مالی	-2475
وراک	-2476
▁ترک	-2477
▁جذب	-2478
▁خطی	-2479
▁دی۔	-2480
▁سرو	-2481
▁سیک	-2482
▁فلس	-2483
▁مشک	-2484
▁ملز	-2485
▁نار	-2486
▁نبی	-2487
▁نفس	-2488
▁ٹاک	-2489
▁پید	-2490
▁اخرا	-2491
▁ازما	-2492
▁تحفظ	-2493
▁جتنا	-2494
▁جتنی	-2495
▁جھوٹ	-2496
▁خالی	-2497
▁دنوں	-2498
▁سیمی	-2499
▁شراب	-2500
▁لہذا	-2501
▁مارچ	-2502
▁مانی	-2503
▁مشرف	-2504
▁مقام	-2505
▁مہرب	-2506
▁ورژن	-2507
▁پہلو	-2508
▁کھول	-2509
▁گرفت	-2510
▁ہجوم	-2511
▁اتحاد	-2512
▁افواج	-2513
▁بازار	-2514
▁بولنی	-2515
▁جذبات	-2516
▁ساینس	-2517
▁سوچتا	-2518
▁سکتی۔	-2519
▁عوامی	-2520
▁قوتیں	-2521
▁مقابل	-2522
▁مقدار	-2523
▁ملازم	-2524
▁پرہیز	-2525
لاقوامی	-2526
▁اصطلاح	-2527
▁بیٹھنی	-2528
▁جاپانی	-2529
▁متعارف	-2530
▁منظوری	-2531
▁اقتصادی	-2532
▁منصوبوں	-2533
▁اذرباییجان	-2534
رک	-2535
فٹ	-2536
تیں	-2537
رہا	-2538
▁وق	-2539
▁کچ	-2540
▁ابی	-2541
▁بجا	-2542
▁تیر	-2543
▁خرچ	-2544
▁راج	-2545
▁فیض	-2546
▁ہدف	-2547
▁افسر	-2548
▁انکی	-2549
▁بیرو	-2550
▁جرمن	-2551
▁زاید	-2552
▁سازش	-2553
▁نافذ	-2554
▁پلیی	-2555
▁گناہ	-2556
▁اسمان	-2557
▁اعصاب	-2558
▁تعمیر	-2559
▁خزانہ	-2560
▁ریلوی	-2561
▁ماییک	-2562
▁ویڈیو	-2563
▁پسندی	-2564
▁پوچھا	-2565
▁چونکہ	-2566
▁چیزیں	-2567
▁گییں۔	-2568
▁دیکھنا	-2569
▁جماعتیں	-2570
▁ڈاکٹروں	-2571
▁عص	-2572
▁بہر	-2573
▁عزت	-2574
▁اسٹاک	-2575
▁اندوز	-2576
▁معیاری	-2577
▁جانوروں	-2578
خی	-2579
دھ	-2580
وک	-2581
▁ه	-2582
علی	-2583
وام	-2584
وٹی	-2585
گری	-2586
گیی	-2587
▁اث	-2588
▁نج	-2589
▁پت	-2590
کٹرک	-2591
گزیر	-2592
▁ارج	-2593
▁اکی	-2594
▁بجی	-2595
▁جام	-2596
▁سرح	-2597
▁سکہ	-2598
▁قلم	-2599
▁مای	-2600
▁محت	-2601
▁مضم	-2602
▁معز	-2603
▁میٹ	-2604
▁میی	-2605
▁نیپ	-2606
▁ٹکٹ	-2607
▁پسی	-2608
▁پشا	-2609
▁پین	-2610
▁چمک	-2611
▁ڈار	-2612
▁ہوچ	-2613
ریٹنگ	-2614
▁تیری	-2615
▁رسول	-2616
▁رونا	-2617
▁رویی	-2618
▁سننی	-2619
▁عاید	-2620
▁فضول	-2621
▁لایی	-2622
▁مادی	-2623
▁مرضی	-2624
▁مریم	-2625
▁میٹر	-2626
▁نفاذ	-2627
▁وغیر	-2628
▁اجلاس	-2629
▁باہمی	-2630
▁بتایی	-2631
▁بھاری	-2632
▁حرارت	-2633
▁خلیفہ	-2634
▁شہزاد	-2635
▁لازمی	-2636
▁مرحلہ	-2637
▁مرکزی	-2638
▁ملکوں	-2639
▁وضاحت	-2640
▁پرستی	-2641
▁جاسکتی	-2642
▁ساییکل	-2643
▁ماہرین	-2644
▁مجموعی	-2645
▁معاشرہ	-2646
▁ناگزیر	-2647
▁الیکٹرک	-2648
▁مطالبات	-2649
له	-2650
گا	-2651
یل	-2652
سنگ	-2653
فتہ	-2654
لیں	-2655
نما	-2656
▁حد	-2657
▁عظ	-2658
▁ھو	-2659
ثریت	-2660
راتی	-2661
▁روب	-2662
▁سنس	-2663
▁صدا	-2664
▁فرم	-2665
▁میل	-2666
▁نگر	-2667
▁پیک	-2668
▁امین	-2669
▁بطور	-2670
▁تاثر	-2671
▁دفاع	-2672
▁مذاق	-2673
▁گورن	-2674
▁ارادہ	-2675
▁دھرنی	-2676
▁عدلیہ	-2677
▁قدرتی	-2678
▁مصروف	-2679
▁ممبیی	-2680
▁نتیجی	-2681
▁نیشنل	-2682
▁کرلیا	-2683
▁اکثریت	-2684
▁قانونی	-2685
▁ناقابل	-2686
▁پلاسٹک	-2687
▁ماییکرو	-2688
ثہ	-2689
اہدی	-2690
ورلڈ	-2691
▁ترق	-2692
▁فضا	-2693
▁موت	-2694
▁وار	-2695
▁چھی	-2696
▁غلطی	-2697
▁فوری	-2698
▁بولتی	-2699
▁بہتری	-2700
▁ترقیاتی	-2701
▁فیفاورلڈ	-2702
خب	-2703
عد	-2704
ازن	-2705
الو	-2706
بیر	-2707
حاق	-2708
صلہ	-2709
صوص	-2710
لیف	-2711
گان	-2712
ہید	-2713
▁دف	-2714
▁نع	-2715
▁ٹؤ	-2716
اعدہ	-2717
رییر	-2718
سافٹ	-2719
لانی	-2720
وعات	-2721
ولیت	-2722
▁الط	-2723
▁باغ	-2724
▁سچی	-2725
▁صبا	-2726
▁قات	-2727
▁مرد	-2728
▁منٹ	-2729
▁وزن	-2730
▁ویر	-2731
▁چلو	-2732
راییل	-2733
▁احسن	-2734
▁جیتی	-2735
▁حرکت	-2736
▁دعوی	-2737
▁ضیاء	-2738
▁لانی	-2739
▁لایٹ	-2740
▁مجید	-2741
▁منسو	-2742
▁مودی	-2743
▁وعدہ	-2744
▁پاگل	-2745
▁ڈالی	-2746
▁ڈرام	-2747
▁کہنی	-2748
▁اوقات	-2749
▁ایینی	-2750
▁تایید	-2751
▁تقریب	-2752
▁تھوڑا	-2753
▁جگہوں	-2754
▁خرابی	-2755
▁سڑکوں	-2756
▁مختصر	-2757
▁مطمین	-2758
▁منایا	-2759
▁مکانی	-2760
▁واپسی	-2761
▁ٹؤنٹی	-2762
▁پشاور	-2763
کنالوجی	-2764
▁اعتراض	-2765
▁انٹروی	-2766
▁بیلجیی	-2767
▁داستان	-2768
▁زبردست	-2769
▁قاریین	-2770
▁مریضوں	-2771
▁مطالبہ	-2772
▁ورلڈکپ	-2773
▁پریکٹس	-2774
▁کیرییر	-2775
▁ہوجاتی	-2776
▁اسراییل	-2777
▁خواہشات	-2778
▁الاقوامی	-2779
▁انٹرنیشنل	-2780
▁ماییکروسافٹ	-2781
اش	-2782
ادم	-2783
ازت	-2784
اقع	-2785
امن	-2786
اور	-2787
اوی	-2788
وعہ	-2789
▁تخ	-2790
▁گم	-2791
انین	-2792
مایی	-2793
ییی۔	-2794
▁اکر	-2795
▁بیش	-2796
▁بیک	-2797
▁توڑ	-2798
▁داد	-2799
▁عرف	-2800
▁عقی	-2801
▁کنٹ	-2802
نامنٹ	-2803
▁اینڈ	-2804
▁بہار	-2805
▁دستی	-2806
▁سوچا	-2807
▁لیں۔	-2808
▁مسلط	-2809
▁پوزی	-2810
▁کوار	-2811
▁کپور	-2812
▁گردی	-2813
▁برایی	-2814
▁تنظیم	-2815
▁جرمنی	-2816
▁جنگلی	-2817
▁سلسلہ	-2818
▁سوچنا	-2819
▁لکھتی	-2820
▁لیجیی	-2821
▁معروف	-2822
▁مواقع	-2823
▁قوانین	-2824
▁مجموعہ	-2825
▁مخالفت	-2826
▁پرندوں	-2827
▁ٹورنامنٹ	-2828
▁شپ	-2829
▁بلو	-2830
▁چھپ	-2831
▁غایب	-2832
▁لکھی	-2833
▁گروپ	-2834
▁حیران	-2835
دل	-2836
نچ	-2837
چل	-2838
‘‘	-2839
اضی	-2840
الم	-2841
الہ	-2842
امت	-2843
انپ	-2844
اکھ	-2845
تمی	-2846
خیر	-2847
لیق	-2848
ٹتی	-2849
ٹرل	-2850
کیا	-2851
▁شم	-2852
▁نب	-2853
▁وف	-2854
باری	-2855
رحال	-2856
زمین	-2857
فارم	-2858
لیمی	-2859
گوار	-2860
▁باق	-2861
▁جوش	-2862
▁حزب	-2863
▁دلا	-2864
▁رکا	-2865
▁ریف	-2866
▁شرٹ	-2867
▁عمو	-2868
▁عہد	-2869
▁غرض	-2870
▁فرا	-2871
▁قرض	-2872
▁قصد	-2873
▁مدت	-2874
▁مسک	-2875
▁پکی	-2876
▁چرا	-2877
▁کشی	-2878
سٹایل	-2879
▁حتمی	-2880
▁حقوق	-2881
▁رواں	-2882
▁سنجی	-2883
▁سوچی	-2884
▁سکول	-2885
▁فریق	-2886
▁فوجی	-2887
▁قاتل	-2888
▁قبضہ	-2889
▁لییی	-2890
▁مارا	-2891
▁مرنی	-2892
▁مشین	-2893
▁مغرب	-2894
▁نجات	-2895
▁نکلا	-2896
▁پودی	-2897
▁چلنی	-2898
▁کھلی	-2899
▁ہالی	-2900
▁ہوکر	-2901
▁انڈیا	-2902
▁تجارت	-2903
▁تخلیق	-2904
▁جیتنی	-2905
▁حادثی	-2906
▁حلقوں	-2907
▁دیکھو	-2908
▁دیکھی	-2909
▁علامت	-2910
▁محترم	-2911
▁مشورہ	-2912
▁معیار	-2913
▁مناظر	-2914
▁وغیرہ	-2915
▁وفاقی	-2916
▁کرونا	-2917
▁گوادر	-2918
▁اٹھاتی	-2919
▁بہرحال	-2920
▁خیالات	-2921
▁دیکھتا	-2922
▁شہریوں	-2923
▁فیصلوں	-2924
▁مشکلات	-2925
▁مصنوعی	-2926
▁نمودار	-2927
▁ہسپتال	-2928
▁اسٹیڈیم	-2929
▁خوشگوار	-2930
▁مصنوعات	-2931
▁مقبولیت	-2932
▁کاروباری	-2933
▁ٹیکنالوجی	-2934
ذی	-2935
اصد	-2936
اڑی	-2937
عات	-2938
ٹرز	-2939
▁پل	-2940
تاری	-2941
ورٹی	-2942
ٹرول	-2943
▁تجا	-2944
▁ترج	-2945
▁طرز	-2946
▁نظم	-2947
▁نقل	-2948
▁ہوس	-2949
▁جمال	-2950
▁دولت	-2951
▁سختی	-2952
▁سردی	-2953
▁شمار	-2954
▁نامز	-2955
▁نصیب	-2956
▁نماز	-2957
▁نمون	-2958
▁ڈھون	-2959
▁کویت	-2960
▁اجازت	-2961
▁دانوں	-2962
▁مقاصد	-2963
▁پہاڑی	-2964
▁تمہارا	-2965
▁وابستہ	-2966
▁پوزیشن	-2967
▁الزامات	-2968
چار	-2969
▁ذر	-2970
▁باپ	-2971
▁نما	-2972
خواست	-2973
▁بھلا	-2974
▁فیشن	-2975
▁رابطہ	-2976
▁دروازہ	-2977
▁درخواست	-2978
شو	-2979
وچ	-2980
ٹہ	-2981
گھ	-2982
ایج	-2983
ایز	-2984
داخ	-2985
زاج	-2986
سیع	-2987
عیب	-2988
عید	-2989
یین	-2990
▁سج	-2991
▁نگ	-2992
▁کٹ	-2993
▁ہٹ	-2994
ابطی	-2995
داری	-2996
رحمن	-2997
مینی	-2998
وریا	-2999
ڈیوں	-3000
کالا	-3001
کشاف	-3002
کیوں	-3003
ھیرا	-3004
▁ابت	-3005
▁تاج	-3006
▁جمع	-3007
▁حصی	-3008
▁دہر	-3009
▁رنز	-3010
▁روڈ	-3011
▁ریگ	-3012
▁سلا	-3013
▁لطی	-3014
▁لہر	-3015
▁مزد	-3016
▁پکڑ	-3017
▁گنج	-3018
▁یاس	-3019
▁یکس	-3020
▁اشنا	-3021
▁اٹھی	-3022
▁برتن	-3023
▁بزرگ	-3024
▁بوجھ	-3025
▁جناب	-3026
▁حیرت	-3027
▁دایر	-3028
▁ذہنی	-3029
▁رویہ	-3030
▁سنگھ	-3031
▁سیکر	-3032
▁شاعر	-3033
▁شعیب	-3034
▁شہید	-3035
▁صفیہ	-3036
▁فروغ	-3037
▁فورا	-3038
▁لنکا	-3039
▁مخلو	-3040
▁مشرو	-3041
▁معزز	-3042
▁ملتا	-3043
▁مناف	-3044
▁نگار	-3045
▁ویزا	-3046
▁پڑھی	-3047
▁پہنا	-3048
▁چارہ	-3049
▁کارڈ	-3050
▁کالم	-3051
▁گولڈ	-3052
▁اسٹین	-3053
▁تکلیف	-3054
▁خیالی	-3055
▁دایری	-3056
▁ساتھی	-3057
▁سنٹرل	-3058
▁سیکٹر	-3059
▁شاعری	-3060
▁شمالی	-3061
▁علامہ	-3062
▁لمحات	-3063
▁مسافر	-3064
▁مشرقی	-3065
▁مضمون	-3066
▁مظاہر	-3067
▁مہارت	-3068
▁میٹھا	-3069
▁نکالا	-3070
▁چولہا	-3071
▁اٹھانا	-3072
▁ایجنسی	-3073
▁بربادی	-3074
▁بھروسہ	-3075
▁بیانیی	-3076
▁تنہایی	-3077
▁خطرناک	-3078
▁خوابوں	-3079
▁دنیاوی	-3080
▁روایات	-3081
▁سرحدوں	-3082
▁متعلقہ	-3083
▁مولانا	-3084
▁ویسٹرن	-3085
▁پھولوں	-3086
▁پیدایش	-3087
▁کوارٹر	-3088
▁ارمینیا	-3089
▁انٹرویو	-3090
▁ایشوریا	-3091
▁معلومات	-3092
▁موجودگی	-3093
ایس	-3094
بلی	-3095
فیظ	-3096
نگز	-3097
پاک	-3098
ہوم	-3099
▁بٹ	-3100
▁عش	-3101
▁عط	-3102
رانہ	-3103
پیشل	-3104
▁الو	-3105
▁بوت	-3106
▁سبق	-3107
▁نرخ	-3108
▁چیف	-3109
▁کرم	-3110
▁گاہ	-3111
▁حافظ	-3112
▁قبضی	-3113
▁لاحق	-3114
▁معاف	-3115
▁پوچھ	-3116
▁پڑھا	-3117
▁ڈالا	-3118
▁اننگز	-3119
▁بدلنی	-3120
▁بناتی	-3121
▁تجاوز	-3122
▁داخلہ	-3123
▁مفہوم	-3124
▁نظریں	-3125
▁نہایت	-3126
▁کریں۔	-3127
▁دستیاب	-3128
▁شایقین	-3129
▁کاینات	-3130
شک	-3131
توں	-3132
ستر	-3133
چین	-3134
چینج	-3135
▁پرا	-3136
▁کاش	-3137
▁سویی	-3138
▁گرما	-3139
▁ایٹمی	-3140
▁خلافت	-3141
▁انڈونی	-3142
▁ایلینڈ	-3143
▁ایکسچینج	-3144
اڈ	-3145
تو	-3146
وڑ	-3147
ارق	-3148
اگر	-3149
ایو	-3150
باز	-3151
شاء	-3152
قول	-3153
میز	-3154
نسر	-3155
وسی	-3156
ویر	-3157
پور	-3158
ڈول	-3159
▁اڑ	-3160
▁رم	-3161
▁شا	-3162
▁عن	-3163
▁هی	-3164
▁گن	-3165
ارات	-3166
انکہ	-3167
طراب	-3168
فرنس	-3169
نکنگ	-3170
ولین	-3171
ونٹی	-3172
▁اشت	-3173
▁باس	-3174
▁بسی	-3175
▁تما	-3176
▁جمی	-3177
▁رام	-3178
▁رضی	-3179
▁سہی	-3180
▁سیٹ	-3181
▁شدہ	-3182
▁شور	-3183
▁شیط	-3184
▁فضل	-3185
▁نکھ	-3186
▁وفد	-3187
▁کرن	-3188
▁کشم	-3189
▁کول	-3190
▁گلو	-3191
▁ہرا	-3192
اییاں	-3193
ریندر	-3194
ندگان	-3195
▁احتی	-3196
▁ارڈر	-3197
▁اساس	-3198
▁امور	-3199
▁بدلی	-3200
▁بھرا	-3201
▁تہذی	-3202
▁جعلی	-3203
▁جہاز	-3204
▁داخل	-3205
▁دکان	-3206
▁ذاتی	-3207
▁روشن	-3208
▁سورۂ	-3209
▁سونا	-3210
▁عمدہ	-3211
▁لگنا	-3212
▁ماڈل	-3213
▁مختص	-3214
▁مراد	-3215
▁مظاہ	-3216
▁منصب	-3217
▁نااہ	-3218
▁ناول	-3219
▁نیچی	-3220
▁ویمن	-3221
▁پتھر	-3222
▁پیچی	-3223
▁ڈراپ	-3224
▁کرو۔	-3225
▁کپڑی	-3226
▁گریز	-3227
▁یاسر	-3228
ٹرولیم	-3229
▁ادارہ	-3230
▁ایجاد	-3231
▁بدلتی	-3232
▁بڑھنی	-3233
▁تجویز	-3234
▁تقویت	-3235
▁جاننی	-3236
▁حوصلہ	-3237
▁خاتون	-3238
▁خوراک	-3239
▁سنایی	-3240
▁شکاری	-3241
▁شہباز	-3242
▁مابین	-3243
▁مخالف	-3244
▁مخصوص	-3245
▁منتخب	-3246
▁منسوخ	-3247
▁منظور	-3248
▁مہنگا	-3249
▁میٹھی	-3250
▁نظریہ	-3251
▁نیپرا	-3252
▁ٹھنڈا	-3253
▁پرواز	-3254
▁پروفی	-3255
▁چھٹنی	-3256
▁ڈرامی	-3257
▁کاموں	-3258
▁یقینا	-3259
▁اسکواڈ	-3260
▁اضطراب	-3261
▁بیانیہ	-3262
▁رینکنگ	-3263
▁سمجھتا	-3264
▁سمجھنا	-3265
▁فارمیٹ	-3266
▁مزدوری	-3267
▁مطالعی	-3268
▁منصوبہ	-3269
▁ویکسین	-3270
▁پہنچنی	-3271
▁بیلجییم	-3272
▁حالانکہ	-3273
▁کانفرنس	-3274
▁اسٹینڈرڈ	-3275
غہ	-3276
ٹڈ	-3277
اون	-3278
بود	-3279
راء	-3280
لال	-3281
▁''	-3282
▁وح	-3283
اراض	-3284
مییر	-3285
▁اجن	-3286
▁اول	-3287
▁خون	-3288
▁سرا	-3289
▁سمت	-3290
▁فرض	-3291
▁ڈای	-3292
▁گھب	-3293
وزیشن	-3294
▁تیند	-3295
▁حدود	-3296
▁لایا	-3297
▁مذاک	-3298
▁مزاح	-3299
▁میچز	-3300
▁ورزی	-3301
▁ٹیلی	-3302
▁چارج	-3303
▁چالی	-3304
▁کہتا	-3305
▁گروہ	-3306
▁اقدار	-3307
▁انھیں	-3308
▁ایکسپ	-3309
▁برسوں	-3310
▁روبوٹ	-3311
▁زبانی	-3312
▁عقیدہ	-3313
▁دیکھیں	-3314
▁اپوزیشن	-3315
▁پریمییر	-3316
اللہ	-3317
▁اری	-3318
▁بدن	-3319
▁مجب	-3320
▁چیک	-3321
▁حصول	-3322
▁اسحاق	-3323
▁تقریر	-3324
▁سوچنی	-3325
▁سیدھی	-3326
▁فلاحی	-3327
▁مہنگی	-3328
▁یقینی	-3329
▁نمایاں	-3330
گم	-3331
▁ء	-3332
اؤں	-3333
ابط	-3334
جاز	-3335
جوع	-3336
رتی	-3337
رمپ	-3338
سکی	-3339
صار	-3340
صرہ	-3341
فتر	-3342
لبہ	-3343
لیس	-3344
لین	-3345
مرہ	-3346
میم	-3347
میں	-3348
وٹا	-3349
▁بغ	-3350
▁خب	-3351
▁نچ	-3352
▁گج	-3353
▁‘‘	-3354
ادات	-3355
ایرم	-3356
سیسی	-3357
میری	-3358
نامہ	-3359
▁بٹن	-3360
▁بیت	-3361
▁جیس	-3362
▁زخم	-3363
▁سون	-3364
▁طنز	-3365
▁عرض	-3366
▁غاز	-3367
▁ناد	-3368
▁نوٹ	-3369
▁نیو	-3370
▁پول	-3371
▁چیخ	-3372
▁کیپ	-3373
▁ھوں	-3374
کاروں	-3375
▁امام	-3376
▁بھیج	-3377
▁جبری	-3378
▁حامل	-3379
▁حامی	-3380
▁حملہ	-3381
▁خانی	-3382
▁خدشہ	-3383
▁دفتر	-3384
▁سانس	-3385
▁سکھا	-3386
▁طارق	-3387
▁عظمت	-3388
▁غلام	-3389
▁قصور	-3390
▁لانا	-3391
▁لمحہ	-3392
▁لیا۔	-3393
▁مشرق	-3394
▁نشست	-3395
▁ویسا	-3396
▁ٹرمپ	-3397
▁پڑی۔	-3398
▁چراغ	-3399
▁ڈھال	-3400
▁کچرا	-3401
▁گران	-3402
▁گمان	-3403
ایرمنٹ	-3404
▁اقوام	-3405
▁ایونٹ	-3406
▁ایکشن	-3407
▁بنانا	-3408
▁تبصرہ	-3409
▁تصادم	-3410
▁تعارف	-3411
▁سرگرم	-3412
▁سپاہی	-3413
▁شریعت	-3414
▁شہریت	-3415
▁فرشتی	-3416
▁لطافت	-3417
▁ماننا	-3418
▁منتظر	-3419
▁نارمل	-3420
▁نشانہ	-3421
▁وسایل	-3422
▁پلانٹ	-3423
▁پھنسی	-3424
▁پہنچا	-3425
▁کرایی	-3426
▁کردیں	-3427
▁کوریا	-3428
▁کویٹہ	-3429
▁کھاتی	-3430
▁گیارہ	-3431
▁انتقال	-3432
▁اٹھایا	-3433
▁بھابھی	-3434
▁سلیکشن	-3435
▁سنبھال	-3436
▁مفادات	-3437
▁موسیقی	-3438
▁نریندر	-3439
▁ڈاکٹرز	-3440
▁کتابیں	-3441
▁ہزاروں	-3442
▁ہوییں۔	-3443
▁اخراجات	-3444
▁امکانات	-3445
▁تقریبات	-3446
▁فرانسیسی	-3447
▁بیٹسمینوں	-3448
▁ریٹایرمنٹ	-3449
دو	-3450
اوت	-3451
ظوظ	-3452
وید	-3453
▁رع	-3454
▁صو	-3455
سویی	-3456
▁خلا	-3457
▁شکل	-3458
▁ظلم	-3459
▁عشق	-3460
▁لاک	-3461
▁معج	-3462
▁ٹری	-3463
▁پان	-3464
▁پیا	-3465
▁تفصی	-3466
▁تقاض	-3467
▁حروف	-3468
▁حساس	-3469
▁حفیظ	-3470
▁دباو	-3471
▁فرما	-3472
▁ٹھہر	-3473
ناییٹڈ	-3474
▁انجام	-3475
▁ترکیب	-3476
▁تعاون	-3477
▁ذریعہ	-3478
▁فریدی	-3479
▁محظوظ	-3480
▁منیجر	-3481
▁ناراض	-3482
▁پڑھنی	-3483
▁کینسر	-3484
▁اعتراف	-3485
▁انکھیں	-3486
▁اٹھاتا	-3487
▁بیٹھتی	-3488
▁جنگلات	-3489
▁سلامتی	-3490
▁ٹوینٹی	-3491
▁پاسپورٹ	-3492
ذیر	-3493
پیش	-3494
▁زد	-3495
▁تنگ	-3496
▁جار	-3497
▁بلوچ	-3498
▁بیشت	-3499
▁حیات	-3500
▁دہشت	-3501
▁سفار	-3502
▁پایا	-3503
▁تاخیر	-3504
▁درپیش	-3505
▁ذرایع	-3506
▁رکاوٹ	-3507
▁کشیدگی	-3508
تب	-3509
جم	-3510
مر	-3511
پن	-3512
ہل	-3513
اطب	-3514
اہٹ	-3515
حکم	-3516
خوش	-3517
راک	-3518
سلو	-3519
شار	-3520
ضان	-3521
مور	-3522
نام	-3523
نای	-3524
نھی	-3525
نیل	-3526
ونس	-3527
ویش	-3528
ویی	-3529
ٹرا	-3530
▁حس	-3531
▁سز	-3532
▁فع	-3533
▁ند	-3534
الیہ	-3535
امدی	-3536
امزن	-3537
حصار	-3538
لایا	-3539
ماٹر	-3540
ڑیاں	-3541
کانی	-3542
کھلا	-3543
▁اثا	-3544
▁ارز	-3545
▁الا	-3546
▁اچھ	-3547
▁جاں	-3548
▁جبر	-3549
▁جلو	-3550
▁جوڑ	-3551
▁حدی	-3552
▁خیز	-3553
▁داغ	-3554
▁درج	-3555
▁دما	-3556
▁دنی	-3557
▁راش	-3558
▁صبر	-3559
▁غذا	-3560
▁غرب	-3561
▁غصہ	-3562
▁فلا	-3563
▁قصہ	-3564
▁ماں	-3565
▁مشغ	-3566
▁مقت	-3567
▁نجی	-3568
▁نمک	-3569
▁چوہ	-3570
▁چڑھ	-3571
▁چہر	-3572
▁گنی	-3573
▁ہٹا	-3574
اییوں	-3575
سلونا	-3576
لانیہ	-3577
مقابل	-3578
نٹینا	-3579
▁الله	-3580
▁انہی	-3581
▁ایتھ	-3582
▁بادل	-3583
▁بڑھی	-3584
▁بکری	-3585
▁بھون	-3586
▁تنخو	-3587
▁جہاد	-3588
▁حضور	-3589
▁خطاب	-3590
▁دشمن	-3591
▁دہلی	-3592
▁رجوع	-3593
▁رسمی	-3594
▁روزہ	-3595
▁زمان	-3596
▁ساکھ	-3597
▁سستی	-3598
▁سعید	-3599
▁سکا۔	-3600
▁شوگر	-3601
▁شوہر	-3602
▁شییر	-3603
▁صادر	-3604
▁غالب	-3605
▁ماسک	-3606
▁مالک	-3607
▁ملنا	-3608
▁نبات	-3609
▁نوٹس	-3610
▁نہاد	-3611
▁والد	-3612
▁پاؤں	-3613
▁پاتا	-3614
▁پاور	-3615
▁پھیل	-3616
▁پیسہ	-3617
▁ڈھنگ	-3618
▁کرسی	-3619
▁ہلکی	-3620
▁اتوار	-3621
▁اسٹار	-3622
▁اونچا	-3623
▁باکسر	-3624
▁بناتا	-3625
▁بڑھنا	-3626
▁تربیت	-3627
▁تشویش	-3628
▁تعبیر	-3629
▁تھایی	-3630
▁جنہوں	-3631
▁حضرات	-3632
▁حقیقی	-3633
▁دوستی	-3634
▁رسایی	-3635
▁رمضان	-3636
▁سکیں۔	-3637
▁سہولت	-3638
▁شیطان	-3639
▁شیڈول	-3640
▁طبقات	-3641
▁لگانا	-3642
▁مخاطب	-3643
▁مدینہ	-3644
▁میڈرڈ	-3645
▁ناخوش	-3646
▁نومبر	-3647
▁ٹماٹر	-3648
▁پسینی	-3649
▁پھرنی	-3650
▁ڈرایی	-3651
▁کتابی	-3652
▁گامزن	-3653
▁گرانٹ	-3654
▁یورپی	-3655
▁اسپیشل	-3656
▁الرحمن	-3657
▁الودگی	-3658
▁انحصار	-3659
▁بڑھانی	-3660
▁تعلیمی	-3661
▁تعینات	-3662
▁توقعات	-3663
▁سرزمین	-3664
▁لیجیی۔	-3665
▁ماحولی	-3666
▁مستحکم	-3667
▁مقدمات	-3668
▁منصوبی	-3669
▁نااہلی	-3670
▁پیغمبر	-3671
▁پیچیدہ	-3672
▁چوہدری	-3673
▁چھٹیاں	-3674
▁کرسکتی	-3675
▁کمزوری	-3676
▁کینیڈا	-3677
▁گھومنی	-3678
▁ہوسکتی	-3679
▁اعلانیہ	-3680
▁اپریٹنگ	-3681
▁باقاعدہ	-3682
▁برطانیہ	-3683
▁سیکرٹری	-3684
▁ضروریات	-3685
▁مدمقابل	-3686
▁نوکریاں	-3687
▁اخلاقیات	-3688
▁ارجنٹینا	-3689
▁انگریزوں	-3690
▁بارسلونا	-3691
▁نمایندگی	-3692
▁ٹیکسٹایل	-3693
▁پابندیاں	-3694
تع	-3695
خط	-3696
تام	-3697
رول	-3698
سٹا	-3699
عمل	-3700
گنی	-3701
ینگ	-3702
▁طع	-3703
▁ڈپ	-3704
احوں	-3705
اریہ	-3706
شتوں	-3707
▁ادھ	-3708
▁اسل	-3709
▁جھا	-3710
▁جیب	-3711
▁عطا	-3712
▁لسی	-3713
▁پھل	-3714
▁چوت	-3715
▁ڈھا	-3716
واروں	-3717
▁اکرم	-3718
▁بننا	-3719
▁جوہر	-3720
▁جویی	-3721
▁دیں۔	-3722
▁لڑکی	-3723
▁مجاز	-3724
▁مرتب	-3725
▁ٹران	-3726
▁پارک	-3727
▁پیار	-3728
▁چوری	-3729
▁چڑھا	-3730
▁چہری	-3731
▁یونس	-3732
▁ادوار	-3733
▁ایران	-3734
▁بڑھتا	-3735
▁بیشتر	-3736
▁تباہی	-3737
▁ترجمہ	-3738
▁زمینی	-3739
▁سلسلی	-3740
▁صاحبہ	-3741
▁لٹکنا	-3742
▁نامزد	-3743
▁نمونہ	-3744
▁ٹایٹل	-3745
▁ٹیمیں	-3746
▁کرنسی	-3747
▁بوتلیں	-3748
▁تجارتی	-3749
▁کنٹرول	-3750
▁ہوجاتا	-3751
▁اخبارات	-3752
▁اصلاحات	-3753
▁نظریاتی	-3754
وج	-3755
سان	-3756
واں	-3757
▁فا	-3758
▁ہت	-3759
▁فہم	-3760
▁قاب	-3761
▁وژن	-3762
▁اشیا	-3763
▁سلطنت	-3764
▁چاہییں	-3765
زر	-3766
صت	-3767
طع	-3768
غت	-3769
غذ	-3770
لن	-3771
ڑپ	-3772
▁ك	-3773
ادو	-3774
الک	-3775
بلک	-3776
جوہ	-3777
ذکر	-3778
روک	-3779
زاز	-3780
سول	-3781
غیب	-3782
فید	-3783
لاک	-3784
لتا	-3785
وتا	-3786
ڈال	-3787
کتا	-3788
کوں	-3789
کچھ	-3790
▁جج	-3791
▁دم	-3792
▁طل	-3793
▁قل	-3794
▁نث	-3795
▁وص	-3796
▁چر	-3797
▁کف	-3798
اہمت	-3799
بوضہ	-3800
ذکرہ	-3801
رمیں	-3802
سانی	-3803
ستگی	-3804
سیجن	-3805
صیبت	-3806
لوار	-3807
ملوں	-3808
واری	-3809
والی	-3810
ولوں	-3811
ٹایی	-3812
کوال	-3813
کھری	-3814
ھاری	-3815
یایی	-3816
▁اسد	-3817
▁اڑا	-3818
▁ایچ	-3819
▁برہ	-3820
▁بچا	-3821
▁بہن	-3822
▁بیو	-3823
▁جشن	-3824
▁جود	-3825
▁رسی	-3826
▁سان	-3827
▁سرد	-3828
▁شاخ	-3829
▁شبہ	-3830
▁عنہ	-3831
▁فخر	-3832
▁لال	-3833
▁لٹک	-3834
▁مرو	-3835
▁مشن	-3836
▁موڑ	-3837
▁مچا	-3838
▁ناز	-3839
▁نیب	-3840
▁پگھ	-3841
▁پیٹ	-3842
▁چھل	-3843
▁چھڑ	-3844
▁کاا	-3845
▁گرہ	-3846
ختیار	-3847
داخلت	-3848
▁بحال	-3849
▁بستر	-3850
▁بقول	-3851
▁بھگت	-3852
▁تشدد	-3853
▁تعصب	-3854
▁تناز	-3855
▁جلوس	-3856
▁حیدر	-3857
▁خواص	-3858
▁خوبی	-3859
▁دفعہ	-3860
▁روٹی	-3861
▁رکھو	-3862
▁ریاض	-3863
▁زلمی	-3864
▁سادہ	-3865
▁سایٹ	-3866
▁سروس	-3867
▁سنیل	-3868
▁سپرد	-3869
▁علمی	-3870
▁عورت	-3871
▁غربت	-3872
▁غلبہ	-3873
▁فارغ	-3874
▁قایل	-3875
▁لمبا	-3876
▁لڑتی	-3877
▁مرکز	-3878
▁مکال	-3879
▁مہذب	-3880
▁ننھی	-3881
▁وادی	-3882
▁ونڈو	-3883
▁پردہ	-3884
▁چھپا	-3885
▁چینل	-3886
▁ڈھیر	-3887
▁کبڈی	-3888
▁کروا	-3889
▁کری۔	-3890
▁کھجی	-3891
▁گریب	-3892
▁گوشت	-3893
▁یورو	-3894
▁یونٹ	-3895
▁یہیں	-3896
▁احوال	-3897
▁اسٹری	-3898
▁اطلاق	-3899
▁اعزاز	-3900
▁الزام	-3901
▁الیون	-3902
▁انعام	-3903
▁اگرچہ	-3904
▁بدلنا	-3905
▁بغاوت	-3906
▁بکھری	-3907
▁تذکرہ	-3908
▁تشریف	-3909
▁تلوار	-3910
▁تیسرا	-3911
▁جرایم	-3912
▁حمایت	-3913
▁حوالہ	-3914
▁حیوان	-3915
▁خاموش	-3916
▁دفاعی	-3917
▁دھونی	-3918
▁روکنا	-3919
▁ریڈیو	-3920
▁زلزلی	-3921
▁ساییٹ	-3922
▁شناخت	-3923
▁عادات	-3924
▁فلسفی	-3925
▁ماسکو	-3926
▁ماہرہ	-3927
▁مستقل	-3928
▁مسکرا	-3929
▁مشغول	-3930
▁مصیبت	-3931
▁منانی	-3932
▁مہارا	-3933
▁نکلنا	-3934
▁ٹھنڈک	-3935
▁ٹھہری	-3936
▁چوایس	-3937
▁چکوال	-3938
▁ڈھانپ	-3939
▁کرانی	-3940
▁کشمکش	-3941
▁کوہلی	-3942
▁کویتی	-3943
▁گندگی	-3944
▁گیسیں	-3945
▁ہورہی	-3946
▁یونان	-3947
▁یہودی	-3948
شاءاللہ	-3949
▁افسران	-3950
▁امتزاج	-3951
▁انکشاف	-3952
▁اکسیجن	-3953
▁باکسنگ	-3954
▁تمھاری	-3955
▁خصوصیت	-3956
▁سرگرمی	-3957
▁شناختی	-3958
▁شہریار	-3959
▁صاحبان	-3960
▁غلطیاں	-3961
▁متوازن	-3962
▁مداخلت	-3963
▁مددگار	-3964
▁مظاہرہ	-3965
▁معززین	-3966
▁مقبوضہ	-3967
▁نفسیات	-3968
▁والدین	-3969
▁پارلیم	-3970
▁ڈراموں	-3971
▁گاڑیاں	-3972
▁گورننس	-3973
▁گھومتی	-3974
▁ہنگامی	-3975
▁بھاییوں	-3976
▁دہاییوں	-3977
▁سیکورٹی	-3978
▁شریانوں	-3979
▁ملازمین	-3980
▁مہنگایی	-3981
▁ہسپانوی	-3982
▁کمپیوٹرز	-3983
▁یوناییٹڈ	-3984
طۂ	-3985
فق	-3986
وث	-3987
ڑھ	-3988
تاح	-3989
زلی	-3990
سمت	-3991
شاہ	-3992
شنز	-3993
عیت	-3994
ملی	-3995
ہبی	-3996
▁عث	-3997
▁مٹ	-3998
دارس	-3999
سوسی	-4000
قادر	-4001
وٹنگ	-4002
کیشن	-4003
▁افت	-4004
▁الم	-4005
▁تار	-4006
▁درس	-4007
▁دھم	-4008
▁ذات	-4009
▁شرط	-4010
▁فرح	-4011
▁قرب	-4012
▁محا	-4013
▁ٹکر	-4014
▁پیم	-4015
▁ڈیز	-4016
▁گند	-4017
▁ابھر	-4018
▁استد	-4019
▁انکو	-4020
▁تمغہ	-4021
▁دامن	-4022
▁دبیی	-4023
▁قسمت	-4024
▁لگنی	-4025
▁مانگ	-4026
▁مسٹر	-4027
▁مکان	-4028
▁نقطۂ	-4029
▁کردہ	-4030
▁اسلوب	-4031
▁بہبود	-4032
▁تقاضا	-4033
▁تنزلی	-4034
▁درکار	-4035
▁دستخط	-4036
▁دوچار	-4037
▁سفارش	-4038
▁صحافی	-4039
▁عثمان	-4040
▁عرفان	-4041
▁عصبیت	-4042
▁متعدد	-4043
▁مدارس	-4044
▁نوازی	-4045
▁نوعیت	-4046
▁پلییر	-4047
▁چالیس	-4048
▁کرتی۔	-4049
▁اختتام	-4050
▁اٹھایی	-4051
▁فرمایی	-4052
▁مداحوں	-4053
▁نگرانی	-4054
▁گزارنی	-4055
▁انٹرنیٹ	-4056
▁تحقیقات	-4057
▁مذاکرات	-4058
▁چھوڑییی۔	-4059
▁امیدواروں	-4060
▁عبدالقادر	-4061
ندا	-4062
ڈین	-4063
خانی	-4064
▁برف	-4065
▁اتری	-4066
▁پاتی	-4067
▁پذیر	-4068
▁احسان	-4069
▁دھونا	-4070
▁ایلینڈز	-4071
▁کینیڈین	-4072
▁انڈونیشیا	-4073
بن	-4074
حر	-4075
زہ	-4076
ضا	-4077
عن	-4078
مع	-4079
نر	-4080
ڈز	-4081
ڑو	-4082
▁؟	-4083
ایف	-4084
بیع	-4085
جری	-4086
دھی	-4087
رضی	-4088
روم	-4089
رکہ	-4090
ساد	-4091
سوں	-4092
صلت	-4093
عکس	-4094
فاق	-4095
مات	-4096
ماں	-4097
ناز	-4098
نٹس	-4099
ولا	-4100
ونت	-4101
پہر	-4102
کسی	-4103
کٹی	-4104
کی۔	-4105
گون	-4106
▁بم	-4107
▁تد	-4108
▁تض	-4109
▁تل	-4110
▁رن	-4111
▁شش	-4112
▁شل	-4113
▁لک	-4114
▁گذ	-4115
افتی	-4116
التی	-4117
امین	-4118
انچہ	-4119
ایقہ	-4120
بانی	-4121
راصل	-4122
ریوں	-4123
لانگ	-4124
مانت	-4125
ملکت	-4126
ناہٹ	-4127
وٹوک	-4128
پمنٹ	-4129
کویی	-4130
▁اجر	-4131
▁ادب	-4132
▁ارض	-4133
▁باش	-4134
▁باض	-4135
▁برو	-4136
▁بنو	-4137
▁بوٹ	-4138
▁تھم	-4139
▁جات	-4140
▁روٹ	-4141
▁رکن	-4142
▁ساح	-4143
▁سجا	-4144
▁سنت	-4145
▁سود	-4146
▁سیف	-4147
▁شرح	-4148
▁عاص	-4149
▁لنک	-4150
▁لہو	-4151
▁مرا	-4152
▁مکی	-4153
▁ناں	-4154
▁نقد	-4155
▁نقش	-4156
▁نیم	-4157
▁وکٹ	-4158
▁ٹاپ	-4159
▁ٹھا	-4160
▁پور	-4161
▁چوک	-4162
▁کیں	-4163
▁گدھ	-4164
▁گہر	-4165
▁گیم	-4166
▁ہیڈ	-4167
▁یوس	-4168
امیوں	-4169
انگیر	-4170
کراہٹ	-4171
▁اخرت	-4172
▁اداس	-4173
▁استق	-4174
▁بالا	-4175
▁بتوں	-4176
▁بنیں	-4177
▁بچپن	-4178
▁بیگم	-4179
▁تھام	-4180
▁جوان	-4181
▁جھلک	-4182
▁جھون	-4183
▁حامد	-4184
▁حملی	-4185
▁خاصی	-4186
▁خالق	-4187
▁خصلت	-4188
▁رشتہ	-4189
▁شریک	-4190
▁شگون	-4191
▁ضمنی	-4192
▁عباس	-4193
▁عربی	-4194
▁عہدی	-4195
▁فرقت	-4196
▁قدری	-4197
▁لالی	-4198
▁لایق	-4199
▁لیکس	-4200
▁مبنی	-4201
▁مشیر	-4202
▁ملاح	-4203
▁مییر	-4204
▁نواب	-4205
▁وارم	-4206
▁وسعت	-4207
▁وسیع	-4208
▁وکیل	-4209
▁پرست	-4210
▁پوسٹ	-4211
▁پگھل	-4212
▁پینٹ	-4213
▁چلیی	-4214
▁چکی۔	-4215
▁چھپی	-4216
▁ڈیری	-4217
▁کلاس	-4218
▁کورس	-4219
▁کینٹ	-4220
▁گاوں	-4221
▁گندم	-4222
▁گہری	-4223
▁ہرگز	-4224
▁ہستی	-4225
▁ہندی	-4226
وٹوکول	-4227
▁ابتدا	-4228
▁ادراک	-4229
▁اطراف	-4230
▁باییک	-4231
▁بدولت	-4232
▁برباد	-4233
▁برعکس	-4234
▁بھرتی	-4235
▁تاہوں	-4236
▁دراصل	-4237
▁دوپہر	-4238
▁دیتی۔	-4239
▁رہتی۔	-4240
▁رہنما	-4241
▁ریفری	-4242
▁ستمبر	-4243
▁سراسر	-4244
▁سلامت	-4245
▁سپورٹ	-4246
▁سیاحت	-4247
▁سینیر	-4248
▁شاہین	-4249
▁ضمانت	-4250
▁طریقی	-4251
▁علموں	-4252
▁قیامت	-4253
▁لسانی	-4254
▁لڑایی	-4255
▁محروم	-4256
▁مظلوم	-4257
▁معانی	-4258
▁معرفت	-4259
▁مملکت	-4260
▁نمایش	-4261
▁پاییں	-4262
▁پرانا	-4263
▁پڑتا۔	-4264
▁پڑھنا	-4265
▁پکانا	-4266
▁چلانی	-4267
▁چھوٹا	-4268
▁چہروں	-4269
▁کاررو	-4270
▁ہوایی	-4271
▁ہوچکا	-4272
▁انتشار	-4273
▁ایرانی	-4274
▁ایسٹرن	-4275
▁بزرگوں	-4276
▁بھرپور	-4277
▁بیداری	-4278
▁جذباتی	-4279
▁خامیاں	-4280
▁خامیوں	-4281
▁خیالوں	-4282
▁روزمرہ	-4283
▁سپلایی	-4284
▁شاہکار	-4285
▁طالبان	-4286
▁طلاقیں	-4287
▁عدالتی	-4288
▁مضبوطی	-4289
▁معاہدی	-4290
▁نمایشی	-4291
▁پلییرز	-4292
▁پولینڈ	-4293
▁پہنانی	-4294
▁چنانچہ	-4295
▁چھلانگ	-4296
▁کارامد	-4297
▁کرسکتا	-4298
▁کرکٹرز	-4299
▁کیساتھ	-4300
▁ہوجانی	-4301
▁ہوجایی	-4302
▁انتخابی	-4303
▁ایرلینڈ	-4304
▁باضابطہ	-4305
▁بنیادیں	-4306
▁جہانگیر	-4307
▁روحانیت	-4308
▁سنسناہٹ	-4309
▁مزدوروں	-4310
▁مسکراہٹ	-4311
▁معاشرتی	-4312
▁کہانیوں	-4313
▁سیاستدان	-4314
▁پالیسیوں	-4315
▁پروٹوکول	-4316
▁گیارہویں	-4317
▁ماحولیاتی	-4318
انڈ	-4319
تمل	-4320
زار	-4321
شید	-4322
فیق	-4323
نڈا	-4324
ویہ	-4325
پیگ	-4326
بلیو	-4327
رانی	-4328
فقار	-4329
▁دوں	-4330
▁غصی	-4331
▁فور	-4332
▁قری	-4333
▁معت	-4334
▁گار	-4335
▁گرا	-4336
▁اسکا	-4337
▁اییی	-4338
▁بالر	-4339
▁بلاگ	-4340
▁بہتا	-4341
▁ذوال	-4342
▁رانڈ	-4343
▁رنگی	-4344
▁ریال	-4345
▁فیضؔ	-4346
▁فیلڈ	-4347
▁لباس	-4348
▁محاذ	-4349
▁محفل	-4350
▁مراک	-4351
▁مصال	-4352
▁مفتی	-4353
▁ملوث	-4354
▁نسبت	-4355
▁واٹس	-4356
▁وہیں	-4357
▁پھنس	-4358
▁چلیں	-4359
▁کلام	-4360
▁بالنگ	-4361
▁جاوید	-4362
▁دھاگہ	-4363
▁رویوں	-4364
▁سوچتی	-4365
▁لگاتی	-4366
▁مشتمل	-4367
▁نکلی۔	-4368
▁ٹرانس	-4369
▁پیروں	-4370
▁چوتھا	-4371
▁ڈبلیو	-4372
▁کردیی	-4373
▁ہوییں	-4374
▁اعتدال	-4375
▁افسردہ	-4376
▁الوداع	-4377
▁راہنما	-4378
▁شروعات	-4379
▁فایرنگ	-4380
▁معاویہ	-4381
▁کھیلنا	-4382
▁یادگار	-4383
▁یکسویی	-4384
▁حکمرانی	-4385
▁ذوالفقار	-4386
▁کردیاگیا	-4387
ایک	-4388
بھا	-4389
▁ڈو	-4390
لقین	-4391
مبیا	-4392
ویتا	-4393
▁ارا	-4394
▁روم	-4395
▁فکس	-4396
▁کال	-4397
▁فارم	-4398
▁پریس	-4399
▁کالی	-4400
▁تلقین	-4401
▁سنبھا	-4402
▁شویتا	-4403
▁شخصیات	-4404
▁مشاہدی	-4405
▁جمہوریہ	-4406
▁مہربانی	-4407
▁بیماریوں	-4408
▁فیفاورلڈکپ	-4409
بخ	-4410
سط	-4411
لي	-4412
مٹ	-4413
گس	-4414
یہ	-4415
اتر	-4416
ارٹ	-4417
اما	-4418
تاب	-4419
حات	-4420
حید	-4421
داز	-4422
دیا	-4423
دیب	-4424
دیق	-4425
ذاب	-4426
رنی	-4427
رون	-4428
سار	-4429
سمہ	-4430
سنس	-4431
شین	-4432
صلى	-4433
غلط	-4434
لوا	-4435
ليه	-4436
لیل	-4437
ملک	-4438
نوع	-4439
نٹو	-4440
نڈر	-4441
واس	-4442
ڈیٹ	-4443
کرز	-4444
کسن	-4445
کوس	-4446
کیی	-4447
گیر	-4448
گین	-4449
۔۔۔	-4450
▁بش	-4451
▁خش	-4452
▁دت	-4453
▁رف	-4454
▁رگ	-4455
▁نل	-4456
▁پز	-4457
▁ین	-4458
ادلہ	-4459
الیف	-4460
انڈر	-4461
ایات	-4462
تانی	-4463
دایی	-4464
رحقی	-4465
سواں	-4466
سٹرڈ	-4467
غلطی	-4468
لابی	-4469
لاین	-4470
مقاب	-4471
ناصر	-4472
ندرا	-4473
ندرہ	-4474
وانی	-4475
ونوں	-4476
وییں	-4477
ٹینس	-4478
کووچ	-4479
ہینی	-4480
یینز	-4481
▁ابر	-4482
▁ارش	-4483
▁اشی	-4484
▁افی	-4485
▁الہ	-4486
▁انٹ	-4487
▁بام	-4488
▁بزم	-4489
▁بوس	-4490
▁بیس	-4491
▁تڑپ	-4492
▁تہی	-4493
▁جدت	-4494
▁جین	-4495
▁حجم	-4496
▁حسب	-4497
▁خوں	-4498
▁دری	-4499
▁دوڑ	-4500
▁رشک	-4501
▁رفت	-4502
▁زہر	-4503
▁ستم	-4504
▁سحر	-4505
▁سرم	-4506
▁سوا	-4507
▁شرک	-4508
▁عدل	-4509
▁فقہ	-4510
▁لیٹ	-4511
▁محب	-4512
▁مشق	-4513
▁مفت	-4514
▁میک	-4515
▁نان	-4516
▁نوی	-4517
▁نیت	-4518
▁واٹ	-4519
▁پرس	-4520
▁پوڈ	-4521
▁پکو	-4522
▁ڈبل	-4523
▁ڈیل	-4524
▁کرس	-4525
▁کور	-4526
▁کہو	-4527
▁گلا	-4528
▁ھیں	-4529
▁ہوش	-4530
اییں۔	-4531
دورفت	-4532
شواہد	-4533
مینان	-4534
نمایی	-4535
ونٹتا	-4536
کھلتا	-4537
▁ابلا	-4538
▁اتی۔	-4539
▁اجتہ	-4540
▁ادیب	-4541
▁امان	-4542
▁اماں	-4543
▁انڈہ	-4544
▁اوری	-4545
▁اونچ	-4546
▁اکمل	-4547
▁ایشن	-4548
▁بریک	-4549
▁بگاڑ	-4550
▁بھلی	-4551
▁تغیر	-4552
▁توکل	-4553
▁جنوں	-4554
▁جواز	-4555
▁حدیث	-4556
▁حصوں	-4557
▁خالص	-4558
▁دانت	-4559
▁دراز	-4560
▁دماغ	-4561
▁دودھ	-4562
▁رشتی	-4563
▁زخمی	-4564
▁زرعی	-4565
▁زوال	-4566
▁ساحل	-4567
▁سفید	-4568
▁سفیر	-4569
▁سوات	-4570
▁سٹاف	-4571
▁سیزن	-4572
▁شرٹس	-4573
▁شعبہ	-4574
▁شیشی	-4575
▁صدور	-4576
▁طبقی	-4577
▁عاصم	-4578
▁عذاب	-4579
▁عليه	-4580
▁عمان	-4581
▁عملا	-4582
▁عیاں	-4583
▁فتنہ	-4584
▁فلاح	-4585
▁قاہد	-4586
▁لگی۔	-4587
▁لیبر	-4588
▁لیکر	-4589
▁مجال	-4590
▁مردہ	-4591
▁مرزا	-4592
▁مشکو	-4593
▁معنی	-4594
▁معین	-4595
▁مقدر	-4596
▁مووی	-4597
▁میزب	-4598
▁نرگس	-4599
▁نصاب	-4600
▁نعری	-4601
▁نیوز	-4602
▁وڈیو	-4603
▁پالا	-4604
▁پروا	-4605
▁پلیٹ	-4606
▁پڑیں	-4607
▁پیہم	-4608
▁چلی۔	-4609
▁ڈاکو	-4610
▁ڈیٹا	-4611
▁کاغذ	-4612
▁کلاں	-4613
▁کلہا	-4614
▁کیاج	-4615
▁گرنی	-4616
▁گلشن	-4617
▁گولی	-4618
▁ھمیں	-4619
▁ہمار	-4620
▁ہولڈ	-4621
▁یارو	-4622
ایجنسی	-4623
رحقیقت	-4624
▁اتفاق	-4625
▁اجایی	-4626
▁اجراء	-4627
▁ارتھر	-4628
▁اسامہ	-4629
▁اعجاز	-4630
▁اوروہ	-4631
▁اکیلی	-4632
▁بارڈر	-4633
▁بدنام	-4634
▁بندوں	-4635
▁تسلسل	-4636
▁تصدیق	-4637
▁تعریف	-4638
▁تقاضی	-4639
▁تماشا	-4640
▁توحید	-4641
▁تھیٹر	-4642
▁جزایر	-4643
▁جگہیں	-4644
▁دایرۂ	-4645
▁دایمی	-4646
▁دلاتا	-4647
▁دیانت	-4648
▁رابطی	-4649
▁رومان	-4650
▁روکنی	-4651
▁سٹیٹس	-4652
▁شامیں	-4653
▁صفایی	-4654
▁صوبوں	-4655
▁عموما	-4656
▁عمومی	-4657
▁فکریہ	-4658
▁لاٹھی	-4659
▁لطیفہ	-4660
▁مایوس	-4661
▁متنوع	-4662
▁متوجہ	-4663
▁مخلوق	-4664
▁معافی	-4665
▁معجزی	-4666
▁معکوس	-4667
▁منتقل	-4668
▁منقطع	-4669
▁مہینی	-4670
▁نامور	-4671
▁نگران	-4672
▁ویمنز	-4673
▁وینٹی	-4674
▁پندرہ	-4675
▁چینلز	-4676
▁ڈالتی	-4677
▁کانسی	-4678
▁کراٹی	-4679
▁کویلہ	-4680
▁کیمری	-4681
▁گجرات	-4682
▁گزارا	-4683
▁گزارو	-4684
▁گلوبل	-4685
▁ہارون	-4686
▁ہمسای	-4687
▁ہورہا	-4688
▁ہٹانی	-4689
الیفایی	-4690
▁احتیاط	-4691
▁اسپتال	-4692
▁اشتہار	-4693
▁اشیانہ	-4694
▁اصلاحی	-4695
▁اییڈیا	-4696
▁برامدی	-4697
▁برخلاف	-4698
▁بھگتنی	-4699
▁تنخواہ	-4700
▁جوکووچ	-4701
▁خریدنی	-4702
▁دایروں	-4703
▁دروازی	-4704
▁دنیایی	-4705
▁دکھانی	-4706
▁رجسٹرڈ	-4707
▁روبوٹس	-4708
▁روزگار	-4709
▁ریاستی	-4710
▁سالانہ	-4711
▁سلیمان	-4712
▁سمجھیں	-4713
▁شکایات	-4714
▁لایسنس	-4715
▁مصالحہ	-4716
▁مضامین	-4717
▁منڈیوں	-4718
▁نادانی	-4719
▁پاناما	-4720
▁پروپیگ	-4721
▁پہاڑوں	-4722
▁پیچھی۔	-4723
▁چھپانی	-4724
▁ڈپریشن	-4725
▁کردیتی	-4726
▁کروشیا	-4727
▁کپتانی	-4728
▁کھانوں	-4729
▁کھیلنی	-4730
▁گنجایش	-4731
▁ہوسکتا	-4732
▁اداکاری	-4733
▁اطمینان	-4734
▁امدورفت	-4735
▁اندھیرا	-4736
▁انقلابی	-4737
▁تیاریاں	-4738
▁جاییداد	-4739
▁درحقیقت	-4740
▁رجحانات	-4741
▁مشروبات	-4742
▁مہمانوں	-4743
▁نفسیاتی	-4744
▁پروفیسر	-4745
▁پہنچایا	-4746
▁ڈراییور	-4747
▁کارنامہ	-4748
▁گھونٹتا	-4749
▁ہوجاییں	-4750
مبرایجنسی	-4751
▁اورشواہد	-4752
▁ریفریجری	-4753
▁پارلیمنٹ	-4754
▁پیٹرولیم	-4755
▁کھجیندرا	-4756
▁کوالیفایی	-4757
▁پاکستانیوں	-4758
▁کبھارکھلتا	-4759
بز	-4760
رپ	-4761
ضم	-4762
ابع	-4763
باک	-4764
ختہ	-4765
عتی	-4766
لاؤ	-4767
ناس	-4768
ڑھی	-4769
ھیں	-4770
▁عی	-4771
▁چپ	-4772
▁ہا	-4773
اتھن	-4774
اسکر	-4775
اویہ	-4776
زیمت	-4777
قریب	-4778
▁الت	-4779
▁حاض	-4780
▁مہم	-4781
▁نیر	-4782
▁ٹرک	-4783
▁پیس	-4784
▁چاھ	-4785
▁گنا	-4786
▁امتی	-4787
▁اونٹ	-4788
▁بھاگ	-4789
▁تابع	-4790
▁تیرہ	-4791
▁جھاگ	-4792
▁دادا	-4793
▁شوبز	-4794
▁طعام	-4795
▁ظالم	-4796
▁مبار	-4797
▁مرتی	-4798
▁موٹر	-4799
▁پیشہ	-4800
▁گردش	-4801
▁اسپین	-4802
▁بازوں	-4803
▁تناظر	-4804
▁تھاپا	-4805
▁زاویہ	-4806
▁سلطان	-4807
▁مجبور	-4808
▁نکلتی	-4809
▁پھرتی	-4810
▁ڈھاکہ	-4811
▁کمیشن	-4812
▁یافتہ	-4813
▁اسٹایل	-4814
▁اعصابی	-4815
▁افتتاح	-4816
▁دارانہ	-4817
▁روزانہ	-4818
▁طاقتیں	-4819
▁مٹھایی	-4820
▁پہچانا	-4821
▁چھوڑنی	-4822
▁کمپنیز	-4823
▁گواسکر	-4824
▁استدلال	-4825
▁میراتھن	-4826
خر	-4827
یس	-4828
سنل	-4829
سٹن	-4830
شیم	-4831
صیر	-4832
▁نون	-4833
انسنگ	-4834
▁اورم	-4835
▁بندی	-4836
▁فاسٹ	-4837
▁نیند	-4838
▁وافر	-4839
▁اولین	-4840
▁جانیی	-4841
▁فکسنگ	-4842
▁ہوگا۔	-4843
▁نکالنا	-4844
بس	-4845
بع	-4846
تن	-4847
جع	-4848
رن	-4849
زش	-4850
ظہ	-4851
فک	-4852
لح	-4853
لر	-4854
نب	-4855
وح	-4856
پس	-4857
گت	-4858
ہن	-4859
یط	-4860
▁ں	-4861
افل	-4862
اہو	-4863
ایط	-4864
تاز	-4865
جاؤ	-4866
جام	-4867
روح	-4868
زاء	-4869
زوں	-4870
ساط	-4871
سلک	-4872
سیت	-4873
سیل	-4874
شنگ	-4875
طین	-4876
فین	-4877
لوک	-4878
لیت	-4879
مید	-4880
میل	-4881
وات	-4882
ولر	-4883
ومن	-4884
ونز	-4885
ونگ	-4886
وون	-4887
ویس	-4888
ٹلر	-4889
پاٹ	-4890
چاہ	-4891
ڑوں	-4892
کات	-4893
کیو	-4894
ہام	-4895
یاب	-4896
▁ثق	-4897
▁خی	-4898
▁ذخ	-4899
▁عج	-4900
▁عق	-4901
▁غی	-4902
▁ڈس	-4903
▁کد	-4904
ادیا	-4905
افیل	-4906
التو	-4907
اویر	-4908
اڑھی	-4909
اکچھ	-4910
اہی۔	-4911
ایدہ	-4912
باحث	-4913
بایل	-4914
تایش	-4915
تیں۔	-4916
رادف	-4917
رونی	-4918
زیری	-4919
سروں	-4920
سویں	-4921
فکیٹ	-4922
قاضی	-4923
لادی	-4924
لیمز	-4925
ناری	-4926
نامی	-4927
نبول	-4928
ندھی	-4929
ندیہ	-4930
وریس	-4931
وقوف	-4932
ونچر	-4933
وٹان	-4934
کرتی	-4935
کواس	-4936
کومت	-4937
ھاتی	-4938
▁ابن	-4939
▁اتش	-4940
▁ازم	-4941
▁اڑی	-4942
▁بجھ	-4943
▁بسر	-4944
▁ترا	-4945
▁جلا	-4946
▁جلس	-4947
▁جنت	-4948
▁جنی	-4949
▁جوں	-4950
▁جھٹ	-4951
▁حسا	-4952
▁حسی	-4953
▁حلی	-4954
▁دڑو	-4955
▁دھک	-4956
▁سپی	-4957
▁سین	-4958
▁شاپ	-4959
▁شکن	-4960
▁ضمن	-4961
▁عدو	-4962
▁عیا	-4963
▁قلت	-4964
▁قمر	-4965
▁قید	-4966
▁لاش	-4967
▁لخت	-4968
▁لوح	-4969
▁لیڈ	-4970
▁لی۔	-4971
▁مخم	-4972
▁مزہ	-4973
▁میا	-4974
▁نذر	-4975
▁وعظ	-4976
▁ٹاس	-4977
▁ٹمپ	-4978
▁پرچ	-4979
▁پوی	-4980
▁چور	-4981
▁کتی	-4982
▁کشش	-4983
▁کٹو	-4984
▁کھچ	-4985
▁کہی	-4986
▁کیو	-4987
▁کیچ	-4988
▁گیر	-4989
▁گین	-4990
▁ہوی	-4991
افراد	-4992
جیریا	-4993
ریکٹر	-4994
مانوں	-4995
نٹاین	-4996
وسینا	-4997
وونما	-4998
کریسی	-4999
کسویل	-5000
▁ابلی	-5001
▁ارزو	-5002
▁الات	-5003
▁البر	-5004
▁المی	-5005
▁امدن	-5006
▁انتھ	-5007
▁اورن	-5008
▁اورہ	-5009
▁اپشن	-5010
▁اگیی	-5011
▁ایات	-5012
▁ایام	-5013
▁ایلی	-5014
▁بازو	-5015
▁بانی	-5016
▁باور	-5017
▁باڈی	-5018
▁بجھی	-5019
▁بحری	-5020
▁برہم	-5021
▁بیحد	-5022
▁تربی	-5023
▁تعطل	-5024
▁تلخی	-5025
▁تنہا	-5026
▁توبہ	-5027
▁جاہل	-5028
▁جذبی	-5029
▁جمود	-5030
▁جناح	-5031
▁جھوم	-5032
▁جیتا	-5033
▁جینی	-5034
▁حادث	-5035
▁حاوی	-5036
▁حمید	-5037
▁حکام	-5038
▁خاصا	-5039
▁خالد	-5040
▁دیدہ	-5041
▁دیشی	-5042
▁رایج	-5043
▁رقوم	-5044
▁روکا	-5045
▁ریلی	-5046
▁زخرف	-5047
▁ستون	-5048
▁سران	-5049
▁سلوک	-5050
▁سنتی	-5051
▁سوار	-5052
▁سٹیج	-5053
▁سیلز	-5054
▁سیلم	-5055
▁سینٹ	-5056
▁سینڈ	-5057
▁شعاع	-5058
▁شمسی	-5059
▁طلبا	-5060
▁عادی	-5061
▁عددی	-5062
▁عزیز	-5063
▁فایر	-5064
▁فساد	-5065
▁قلعی	-5066
▁لالچ	-5067
▁لڑنی	-5068
▁لگا۔	-5069
▁لیور	-5070
▁مثلا	-5071
▁محبو	-5072
▁محیط	-5073
▁مرجع	-5074
▁مسلہ	-5075
▁معمہ	-5076
▁ممبر	-5077
▁منظم	-5078
▁منفی	-5079
▁موین	-5080
▁مہیا	-5081
▁نثار	-5082
▁ندیم	-5083
▁نصیح	-5084
▁نقطہ	-5085
▁نچلی	-5086
▁نڈال	-5087
▁وارد	-5088
▁ویزی	-5089
▁پبلک	-5090
▁پراس	-5091
▁پرکھ	-5092
▁پلڑا	-5093
▁پیرو	-5094
▁چرچا	-5095
▁چلتن	-5096
▁چیمہ	-5097
▁ڈویل	-5098
▁کولم	-5099
▁کھچا	-5100
▁کھیت	-5101
▁گانا	-5102
▁گسار	-5103
▁گھبر	-5104
▁گھنٹ	-5105
▁ہتھی	-5106
▁ہفتہ	-5107
▁ہٹلر	-5108
▁یارک	-5109
▁یوسف	-5110
رانداز	-5111
▁ابلاغ	-5112
▁ابہام	-5113
▁اثاثی	-5114
▁اجاگر	-5115
▁اجزاء	-5116
▁ارتقا	-5117
▁اسباب	-5118
▁اسپاٹ	-5119
▁اشارہ	-5120
▁اعادہ	-5121
▁انجری	-5122
▁انڈیل	-5123
▁اوراس	-5124
▁اولمپ	-5125
▁بانڈز	-5126
▁باییں	-5127
▁بتانی	-5128
▁برہنہ	-5129
▁بلاول	-5130
▁بلندی	-5131
▁بندھی	-5132
▁بکواس	-5133
▁بہادر	-5134
▁بیرون	-5135
▁بیمبا	-5136
▁تالاب	-5137
▁تردید	-5138
▁تسلیم	-5139
▁توازن	-5140
▁تکمیل	-5141
▁ثانوی	-5142
▁جانی۔	-5143
▁جرنیل	-5144
▁حقانی	-5145
▁خدمات	-5146
▁خریدا	-5147
▁خواہی	-5148
▁خیریت	-5149
▁دعاگو	-5150
▁دوبیی	-5151
▁ذخایر	-5152
▁رافیل	-5153
▁ساڑھی	-5154
▁ستایش	-5155
▁سرخرو	-5156
▁سوکھی	-5157
▁سکتا۔	-5158
▁سیدنا	-5159
▁سیدھا	-5160
▁شرایط	-5161
▁صداقت	-5162
▁طورپہ	-5163
▁عناصر	-5164
▁عندیہ	-5165
▁غلامی	-5166
▁فردوس	-5167
▁فلورو	-5168
▁قادری	-5169
▁قدامت	-5170
▁لکھتا	-5171
▁مباحث	-5172
▁مجروح	-5173
▁مسیحی	-5174
▁مشاہد	-5175
▁ملالہ	-5176
▁ممتاز	-5177
▁مناتی	-5178
▁منسلک	-5179
▁منقسم	-5180
▁میٹرک	-5181
▁ناشتی	-5182
▁نجانی	-5183
▁نظارہ	-5184
▁نکلتا	-5185
▁نکلنی	-5186
▁نکھار	-5187
▁واشنگ	-5188
▁ویرات	-5189
▁پارسی	-5190
▁پسینہ	-5191
▁پکانی	-5192
▁چلاتا	-5193
▁چیمبر	-5194
▁ڈیوٹی	-5195
▁کرنا۔	-5196
▁کرگیی	-5197
▁کلنڈر	-5198
▁کلورو	-5199
▁کناری	-5200
▁کوچنگ	-5201
▁کھولا	-5202
▁کھیلی	-5203
▁گھبرا	-5204
▁گھیرا	-5205
▁ہوگی۔	-5206
▁ہڈیوں	-5207
▁یونین	-5208
▁اجنبیت	-5209
▁ارضیات	-5210
▁الطبیع	-5211
▁امارات	-5212
▁اوراگر	-5213
▁بادشاہ	-5214
▁بھوٹان	-5215
▁بینکوں	-5216
▁بیوقوف	-5217
▁تصاویر	-5218
▁تیندوی	-5219
▁ثقافتی	-5220
▁جسمانی	-5221
▁حساسیت	-5222
▁خریدنا	-5223
▁خوشونت	-5224
▁دانستہ	-5225
▁دہرایی	-5226
▁ساتویں	-5227
▁سبزیاں	-5228
▁سماٹرا	-5229
▁طاقتور	-5230
▁عیسایی	-5231
▁فراہمی	-5232
▁فلسطین	-5233
▁قربانی	-5234
▁لاکھوں	-5235
▁لگتاہی	-5236
▁مانیٹر	-5237
▁مترادف	-5238
▁متقاضی	-5239
▁ملاحظہ	-5240
▁موبایل	-5241
▁مہاراج	-5242
▁مہربان	-5243
▁میزبان	-5244
▁ٹمپرنگ	-5245
▁پرفارم	-5246
▁چاولوں	-5247
▁چڑھایی	-5248
▁ڈھونڈو	-5249
▁کشمیری	-5250
▁کمانڈر	-5251
▁کھیلیں	-5252
▁گزارنا	-5253
▁گناہوں	-5254
▁گیندوں	-5255
▁ہوچکی۔	-5256
وروکریسی	-5257
▁استنبول	-5258
▁الجیریا	-5259
▁ایساکچھ	-5260
▁ایڈونچر	-5261
▁خانیوال	-5262
▁خرابیوں	-5263
▁سرانجام	-5264
▁سنجیدگی	-5265
▁شرمندگی	-5266
▁شیوسینا	-5267
▁عدالتیں	-5268
▁لسانیات	-5269
▁مصیبتوں	-5270
▁میکسویل	-5271
▁نشوونما	-5272
▁پروازوں	-5273
▁پریشانی	-5274
▁ڈرامایی	-5275
▁کھلکھلا	-5276
▁ارجنٹاین	-5277
▁اسپیشلسٹ	-5278
▁انتظامات	-5279
▁اوپریٹنگ	-5280
▁ایکسپورٹ	-5281
▁اییرپورٹ	-5282
▁بیاختیار	-5283
▁سرگرمیاں	-5284
▁مٹھاییاں	-5285
▁چیمپیینز	-5286
▁ڈایریکٹر	-5287
▁ڈویلپمنٹ	-5288
رس	-5289
سل	-5290
اصر	-5291
ذول	-5292
قود	-5293
نڈز	-5294
گرد	-5295
▁سخ	-5296
▁گڈ	-5297
جیٹل	-5298
دیشہ	-5299
سیوں	-5300
شیدہ	-5301
ظرین	-5302
▁جگر	-5303
▁رحم	-5304
▁فاص	-5305
▁منع	-5306
▁نوں	-5307
▁وہم	-5308
▁ٹوی	-5309
▁پرت	-5310
▁ارہا	-5311
▁اسکر	-5312
▁باطل	-5313
▁برپا	-5314
▁تباہ	-5315
▁تعین	-5316
▁فیصد	-5317
▁مایی	-5318
▁ملای	-5319
▁نکاح	-5320
▁پرند	-5321
▁چولہ	-5322
▁ڈاون	-5323
▁ہنسی	-5324
▁اجنبی	-5325
▁اقامہ	-5326
▁الدین	-5327
▁ایپلی	-5328
▁برتری	-5329
▁بیزار	-5330
▁تجدید	-5331
▁ردعمل	-5332
▁زلزلہ	-5333
▁عزیمت	-5334
▁فیملی	-5335
▁قریشی	-5336
▁قواید	-5337
▁مبذول	-5338
▁مغلوب	-5339
▁مفقود	-5340
▁پٹرول	-5341
▁ڈھونڈ	-5342
▁کھاتا	-5343
▁گزرتی	-5344
پاکستان	-5345
▁ادھوری	-5346
▁اندیشہ	-5347
▁اٹھارہ	-5348
▁ایسوسی	-5349
▁تیندوا	-5350
▁ناظرین	-5351
▁پوشیدہ	-5352
▁ڈیجیٹل	-5353
▁گزارتا	-5354
▁امتیازی	-5355
▁سیاستدا	-5356
▁پانچواں	-5357
▁بلوچستان	-5358
چن	-5359
اسو	-5360
اکت	-5361
حسن	-5362
فوج	-5363
نگا	-5364
یرہ	-5365
ازیل	-5366
کھٹا	-5367
▁اپن	-5368
▁فلی	-5369
▁ملت	-5370
▁منگ	-5371
▁پہ۔	-5372
▁ڈیو	-5373
▁کاٹ	-5374
▁قابو	-5375
▁گھڑی	-5376
▁تصحیح	-5377
▁جوتوں	-5378
▁حادثہ	-5379
▁شراکت	-5380
▁لانسنگ	-5381
▁اختیارات	-5382
خذ	-5383
زح	-5384
ضب	-5385
عب	-5386
قو	-5387
اتج	-5388
اسم	-5389
اطی	-5390
اقب	-5391
اٹا	-5392
ایض	-5393
بحث	-5394
بری	-5395
بوت	-5396
تاط	-5397
جرت	-5398
حدہ	-5399
حمد	-5400
خرا	-5401
خیص	-5402
داف	-5403
دتی	-5404
راق	-5405
رام	-5406
ربا	-5407
رسن	-5408
رشل	-5409
ری۔	-5410
سبت	-5411
سبز	-5412
سٹس	-5413
طرح	-5414
ظمی	-5415
علم	-5416
فاف	-5417
لوگ	-5418
مقد	-5419
موں	-5420
مپی	-5421
مکن	-5422
نڈہ	-5423
وتی	-5424
وجی	-5425
ونو	-5426
ونڈ	-5427
چال	-5428
چتا	-5429
ڈرر	-5430
ڈشی	-5431
کتی	-5432
گال	-5433
گاہ	-5434
ھری	-5435
ہرا	-5436
ہین	-5437
▁جد	-5438
▁جغ	-5439
▁حا	-5440
▁زا	-5441
▁وٹ	-5442
▁ٹپ	-5443
▁ڈب	-5444
▁کث	-5445
▁کک	-5446
▁ھا	-5447
▁یر	-5448
احیل	-5449
اربہ	-5450
ارنی	-5451
اریل	-5452
الوں	-5453
امید	-5454
اپور	-5455
اہدہ	-5456
ایی۔	-5457
بیلی	-5458
بینہ	-5459
تعلق	-5460
جایز	-5461
جمنٹ	-5462
جوعہ	-5463
جینی	-5464
رافت	-5465
ردار	-5466
سیمی	-5467
شہیر	-5468
صغیر	-5469
طرنج	-5470
طہیر	-5471
ظہار	-5472
عیات	-5473
فتوں	-5474
لانا	-5475
لاوہ	-5476
لشیم	-5477
لمند	-5478
لیاں	-5479
معطل	-5480
نامک	-5481
نمنٹ	-5482
نڈول	-5483
نگوں	-5484
نییر	-5485
وایی	-5486
وبست	-5487
ورین	-5488
ٹیری	-5489
ٹیول	-5490
پہنچ	-5491
پیکا	-5492
ڈیکل	-5493
گانہ	-5494
گریس	-5495
گریٹ	-5496
گزین	-5497
▁ابو	-5498
▁ادم	-5499
▁اطف	-5500
▁الب	-5501
▁اکا	-5502
▁بحر	-5503
▁بخش	-5504
▁بلغ	-5505
▁بمب	-5506
▁بنت	-5507
▁بچن	-5508
▁بہم	-5509
▁تلی	-5510
▁جزا	-5511
▁جھی	-5512
▁جیو	-5513
▁حیی	-5514
▁خلو	-5515
▁درب	-5516
▁دکر	-5517
▁رقص	-5518
▁روپ	-5519
▁زپر	-5520
▁زیب	-5521
▁سبس	-5522
▁سکھ	-5523
▁شاد	-5524
▁شعر	-5525
▁شیر	-5526
▁طبق	-5527
▁عذر	-5528
▁فاط	-5529
▁فجر	-5530
▁فعل	-5531
▁فوڈ	-5532
▁قزح	-5533
▁قوس	-5534
▁لاچ	-5535
▁لتا	-5536
▁لوں	-5537
▁لکس	-5538
▁مرض	-5539
▁مرہ	-5540
▁منح	-5541
▁موج	-5542
▁موڈ	-5543
▁میز	-5544
▁میڈ	-5545
▁ندی	-5546
▁نرم	-5547
▁نہی	-5548
▁واہ	-5549
▁وحی	-5550
▁ولی	-5551
▁ونگ	-5552
▁ٹوپ	-5553
▁ٹین	-5554
▁پشت	-5555
▁پنا	-5556
▁چوٹ	-5557
▁ڈٹی	-5558
▁کتب	-5559
▁کرچ	-5560
▁کسٹ	-5561
▁کفر	-5562
▁کوم	-5563
▁کچی	-5564
▁کھٹ	-5565
▁گمب	-5566
▁گون	-5567
▁گھس	-5568
▁گیل	-5569
▁ہاس	-5570
▁ہمہ	-5571
▁یوم	-5572
ادران	-5573
اراڈو	-5574
اسکتا	-5575
انونی	-5576
اہدوں	-5577
تالوں	-5578
جوہات	-5579
رزمان	-5580
فارمر	-5581
فرادی	-5582
مباپی	-5583
واییں	-5584
ولیات	-5585
ڈسٹری	-5586
ہارون	-5587
▁احمق	-5588
▁ادھا	-5589
▁ادھی	-5590
▁اسما	-5591
▁الٹی	-5592
▁انار	-5593
▁انجم	-5594
▁انکم	-5595
▁انھی	-5596
▁اولا	-5597
▁اکشی	-5598
▁ایما	-5599
▁باہم	-5600
▁بدلو	-5601
▁بساط	-5602
▁بناؤ	-5603
▁بندش	-5604
▁بنی۔	-5605
▁بھوک	-5606
▁بیرل	-5607
▁بیوی	-5608
▁بیٹا	-5609
▁تالا	-5610
▁تامل	-5611
▁تبلی	-5612
▁تجھی	-5613
▁تداب	-5614
▁تسلی	-5615
▁تمیز	-5616
▁تیرا	-5617
▁ثبوت	-5618
▁جاؤں	-5619
▁جایا	-5620
▁جذبہ	-5621
▁جسٹس	-5622
▁جمیل	-5623
▁جولی	-5624
▁حلال	-5625
▁حلقی	-5626
▁خاکی	-5627
▁خطیر	-5628
▁خفیہ	-5629
▁خوان	-5630
▁دانہ	-5631
▁دلوں	-5632
▁دھوپ	-5633
▁دیوی	-5634
▁رانا	-5635
▁رشید	-5636
▁روتی	-5637
▁رکنی	-5638
▁رہوں	-5639
▁زیدی	-5640
▁سالہ	-5641
▁سانپ	-5642
▁سباب	-5643
▁سستا	-5644
▁سٹری	-5645
▁سکون	-5646
▁سہگل	-5647
▁سہی۔	-5648
▁شرما	-5649
▁ششدر	-5650
▁شفاف	-5651
▁شکری	-5652
▁صحبت	-5653
▁طبقہ	-5654
▁ظہور	-5655
▁علوم	-5656
▁علیم	-5657
▁عہدہ	-5658
▁غدار	-5659
▁فرصت	-5660
▁فریز	-5661
▁فواد	-5662
▁قادر	-5663
▁قرضی	-5664
▁قلیل	-5665
▁لڑنا	-5666
▁لکڑی	-5667
▁لیی۔	-5668
▁ماخذ	-5669
▁مسلک	-5670
▁معمر	-5671
▁مفکر	-5672
▁مندی	-5673
▁مکھی	-5674
▁میلہ	-5675
▁مینہ	-5676
▁ناتج	-5677
▁نادہ	-5678
▁نایب	-5679
▁نعمت	-5680
▁نقشہ	-5681
▁نمبر	-5682
▁نواک	-5683
▁نچوڑ	-5684
▁نکتہ	-5685
▁نکسن	-5686
▁نیاز	-5687
▁واقف	-5688
▁وردی	-5689
▁ورزش	-5690
▁وعدی	-5691
▁وقتی	-5692
▁ٹانگ	-5693
▁ٹوٹی	-5694
▁ٹکرا	-5695
▁ٹیکن	-5696
▁پانا	-5697
▁پروف	-5698
▁پرچم	-5699
▁پزیر	-5700
▁پناہ	-5701
▁پڑنی	-5702
▁پھلی	-5703
▁پہنو	-5704
▁چادر	-5705
▁چاھی	-5706
▁چنتی	-5707
▁چھین	-5708
▁ڈکٹی	-5709
▁ڈیوس	-5710
▁کاسٹ	-5711
▁کافر	-5712
▁کانگ	-5713
▁کلیی	-5714
▁کھان	-5715
▁کہا۔	-5716
▁کیسا	-5717
▁کیسز	-5718
▁گاہی	-5719
▁گراں	-5720
▁گرنا	-5721
▁گروی	-5722
▁گریڈ	-5723
▁گھری	-5724
▁گھسا	-5725
▁گیند	-5726
▁ہانگ	-5727
▁ہجرت	-5728
▁ہلچل	-5729
▁ہوٹل	-5730
▁یکسر	-5731
مپینای	-5732
نڈولکر	-5733
ڈشیڈنگ	-5734
▁ادھار	-5735
▁اساسی	-5736
▁اسکول	-5737
▁اصرار	-5738
▁اعظمی	-5739
▁اقدام	-5740
▁امراض	-5741
▁اٹھتا	-5742
▁اپنوں	-5743
▁ایدھی	-5744
▁اینکر	-5745
▁باغات	-5746
▁باہمت	-5747
▁بتاتی	-5748
▁بردار	-5749
▁بھاتی	-5750
▁بیدار	-5751
▁بیمار	-5752
▁بیندر	-5753
▁بیوشن	-5754
▁بیچنی	-5755
▁ترغیب	-5756
▁ترمیم	-5757
▁تشخیص	-5758
▁تشہیر	-5759
▁تطہیر	-5760
▁توسیع	-5761
▁توہین	-5762
▁تھامی	-5763
▁تہذیب	-5764
▁تیلگو	-5765
▁تیمور	-5766
▁جاسکی	-5767
▁جہالت	-5768
▁حالیہ	-5769
▁حملوں	-5770
▁خاصیت	-5771
▁خریدی	-5772
▁خستگی	-5773
▁درستی	-5774
▁دشمنی	-5775
▁دوھری	-5776
▁دپیکا	-5777
▁دھوکا	-5778
▁دیوتا	-5779
▁راتوں	-5780
▁راحیل	-5781
▁رسالت	-5782
▁رشتوں	-5783
▁روابط	-5784
▁رہایش	-5785
▁رہیں۔	-5786
▁ریاضی	-5787
▁سبحان	-5788
▁سرایی	-5789
▁سربین	-5790
▁سرسبز	-5791
▁سرمیی	-5792
▁سرکار	-5793
▁سزاؤں	-5794
▁سماعت	-5795
▁سوچیں	-5796
▁سپاٹا	-5797
▁سکندر	-5798
▁سگریٹ	-5799
▁سیٹھی	-5800
▁شریف۔	-5801
▁شطرنج	-5802
▁شہروں	-5803
▁صفحات	-5804
▁صنعتی	-5805
▁طیارہ	-5806
▁علماء	-5807
▁فاروق	-5808
▁فرایض	-5809
▁فلاور	-5810
▁فیڈرر	-5811
▁قاعدہ	-5812
▁قبایل	-5813
▁قبروں	-5814
▁قوتوں	-5815
▁لمحوں	-5816
▁لگادو	-5817
▁مابعد	-5818
▁مارشل	-5819
▁مارکس	-5820
▁ماندہ	-5821
▁متروک	-5822
▁متوقع	-5823
▁محافظ	-5824
▁محتاط	-5825
▁مرحوم	-5826
▁مسیحا	-5827
▁مشروب	-5828
▁معرکہ	-5829
▁منافع	-5830
▁مونٹی	-5831
▁مچھلی	-5832
▁ناریل	-5833
▁نافذہ	-5834
▁نیمنی	-5835
▁وصولی	-5836
▁وٹامن	-5837
▁ٹیونز	-5838
▁پنجرہ	-5839
▁پھینٹ	-5840
▁پیرہن	-5841
▁پیغمب	-5842
▁چھاپہ	-5843
▁چھلکی	-5844
▁ڈرامہ	-5845
▁کارلو	-5846
▁کارکن	-5847
▁کرارا	-5848
▁کرایا	-5849
▁کمرشل	-5850
▁کوستی	-5851
▁کھینچ	-5852
▁گاہوں	-5853
▁گرینڈ	-5854
▁گنجان	-5855
▁گھنٹہ	-5856
▁ہفتوں	-5857
▁ہنگری	-5858
▁ہونگی	-5859
جینیرنگ	-5860
▁اجتہاد	-5861
▁احترام	-5862
▁ازوریس	-5863
▁افریقا	-5864
▁افسانی	-5865
▁انتقام	-5866
▁اٹھانی	-5867
▁اچھایی	-5868
▁اکنامک	-5869
▁باہرلی	-5870
▁بحفاظت	-5871
▁برصغیر	-5872
▁بچگانہ	-5873
▁بہادری	-5874
▁بہلایا	-5875
▁تاجروں	-5876
▁ترتیبی	-5877
▁جنجوعہ	-5878
▁جونییر	-5879
▁دشواری	-5880
▁دکھانا	-5881
▁ریگولی	-5882
▁زبانیں	-5883
▁زلزلوں	-5884
▁زیادتی	-5885
▁زیربحث	-5886
▁سردیوں	-5887
▁سزاییں	-5888
▁سونالی	-5889
▁سونامی	-5890
▁شایستہ	-5891
▁شریفوں	-5892
▁صنعتوں	-5893
▁عقلمند	-5894
▁علیحدہ	-5895
▁عنقریب	-5896
▁لاتعلق	-5897
▁لگاییں	-5898
▁مابصلى	-5899
▁مختاری	-5900
▁ممبران	-5901
▁مناسبت	-5902
▁منافقت	-5903
▁موسموں	-5904
▁مکالمہ	-5905
▁مینڈیٹ	-5906
▁میڈیکل	-5907
▁ناممکن	-5908
▁نمکیات	-5909
▁واقعات	-5910
▁وجوہات	-5911
▁ٹورنٹو	-5912
▁ٹھہری۔	-5913
▁پرامید	-5914
▁پگھلنا	-5915
▁پہنچتی	-5916
▁پیشیاں	-5917
▁کابینہ	-5918
▁کرلیتی	-5919
▁کھاگیی	-5920
▁کیلشیم	-5921
▁گریبان	-5922
▁گمبھیر	-5923
▁گیمبیا	-5924
▁ہنگامہ	-5925
▁ہوتاہی	-5926
▁ہوگیا۔	-5927
▁ابتدایی	-5928
▁احتیاطی	-5929
▁اسانیاں	-5930
▁انفرادی	-5931
▁انہوںنی	-5932
▁اورغلطی	-5933
▁اونچایی	-5934
▁اینڈرسن	-5935
▁برادران	-5936
▁بندوبست	-5937
▁بھونچال	-5938
▁ترجیحات	-5939
▁تعلیمات	-5940
▁خریداری	-5941
▁خوشبویی	-5942
▁رہنمایی	-5943
▁ریکارڈز	-5944
▁ریگستان	-5945
▁سنگاپور	-5946
▁طبیعیات	-5947
▁عدالتوں	-5948
▁فاتحانہ	-5949
▁فخرزمان	-5950
▁فراوانی	-5951
▁فنکاروں	-5952
▁فیسٹیول	-5953
▁موضوعات	-5954
▁ناتجربہ	-5955
▁نصیحتیں	-5956
▁نمایندہ	-5957
▁ٹورنمنٹ	-5958
▁پٹرولیم	-5959
▁پھیلایی	-5960
▁کااظہار	-5961
▁کارخانی	-5962
▁کانگریس	-5963
▁کنندگان	-5964
▁کولمبیا	-5965
▁کہانیاں	-5966
▁گریزمین	-5967
▁گھبراتی	-5968
▁ہسپانیہ	-5969
▁ہمسایوں	-5970
▁یہودیوں	-5971
▁اعتراضات	-5972
▁جاسکتاہی	-5973
▁دیانتدار	-5974
▁راہنمایی	-5975
▁فلسفیانہ	-5976
▁لوڈشیڈنگ	-5977
▁مانیٹرنگ	-5978
▁میڈیاسیل	-5979
▁چیمپینای	-5980
▁کولاراڈو	-5981
▁انجینیرنگ	-5982
▁انشاءاللہ	-5983
▁پروپیگنڈا	-5984
▁ہندوستانی	-5985
▁الطبیعیاتی	-5986
▁اییڈیالوجی	-5987
▁ٹرانسفارمر	-5988
▁ریفریجریٹرز	-5989
▁چیمپینایمباپی	-5990
قد	-5991
الر	-5992
ایٹ	-5993
جھا	-5994
رپل	-5995
قیر	-5996
مول	-5997
نسل	-5998
وٹو	-5999
ڑلی	-6000
ہمی	-6001
▁غر	-6002
▁نپ	-6003
▁چک	-6004
ازنہ	-6005
الله	-6006
ترکہ	-6007
خانہ	-6008
زایی	-6009
ضمام	-6010
عمال	-6011
وشکا	-6012
کرار	-6013
▁تھک	-6014
▁راک	-6015
▁ربا	-6016
▁غنی	-6017
▁فرش	-6018
▁پر۔	-6019
▁چاٹ	-6020
بودار	-6021
ریسنگ	-6022
وظہبی	-6023
▁اذان	-6024
▁انگی	-6025
▁بیاہ	-6026
▁جادو	-6027
▁حریف	-6028
▁درجی	-6029
▁دریا	-6030
▁عصری	-6031
▁عظمی	-6032
▁فہمی	-6033
▁مالا	-6034
▁معصو	-6035
▁منڈی	-6036
▁نامہ	-6037
▁ٹرپل	-6038
▁پینی	-6039
▁ڈھول	-6040
▁ڈیزل	-6041
▁کامط	-6042
▁کوان	-6043
▁کہیی	-6044
▁گزرا	-6045
▁االله	-6046
▁اسلحہ	-6047
▁اسٹیل	-6048
▁التجا	-6049
▁الناس	-6050
▁بیٹری	-6051
▁تکرار	-6052
▁جاگنی	-6053
▁خاتمہ	-6054
▁خاتمی	-6055
▁خبریں	-6056
▁درجات	-6057
▁دھڑلی	-6058
▁سکالر	-6059
▁شکایت	-6060
▁شہادت	-6061
▁مبارک	-6062
▁منعقد	-6063
▁چولہی	-6064
▁کھلنا	-6065
▁کھلنی	-6066
▁گورنر	-6067
▁گھروں	-6068
▁ہیجان	-6069
▁یادیں	-6070
▁اردگرد	-6071
▁انضمام	-6072
▁انوشکا	-6073
▁بلاگنگ	-6074
▁بھرمار	-6075
▁بیرونی	-6076
▁جولایی	-6077
▁خطاییں	-6078
▁ریٹایر	-6079
▁فرشتوں	-6080
▁فرمایا	-6081
▁مثالیں	-6082
▁مجبوری	-6083
▁مزاحمت	-6084
▁مشترکہ	-6085
▁موازنہ	-6086
▁موٹروی	-6087
▁نپولین	-6088
▁کروانی	-6089
▁ابوظہبی	-6090
▁ملایشیا	-6091
▁خوشبودار	-6092
کول	-6093
گوا	-6094
▁قذ	-6095
ریاں	-6096
صیرت	-6097
بیایی	-6098
لاینس	-6099
▁جارج	-6100
▁طاہر	-6101
▁کالج	-6102
▁بصیرت	-6103
▁دہانی	-6104
▁قذافی	-6105
▁کینیا	-6106
▁گانوں	-6107
▁اپنانا	-6108
▁دانشور	-6109
▁ساینسی	-6110
▁نورانی	-6111
▁کریبیایی	-6112
..	-6113
ؤر	-6114
تک	-6115
رڈ	-6116
زق	-6117
صف	-6118
طق	-6119
عم	-6120
فس	-6121
كل	-6122
لع	-6123
مۃ	-6124
وخ	-6125
ٹش	-6126
ٹک	-6127
چس	-6128
ڈک	-6129
گٹ	-6130
یح	-6131
ی۔	-6132
ابی	-6133
ادھ	-6134
ارب	-6135
اعد	-6136
الف	-6137
اکر	-6138
اہل	-6139
بیو	-6140
بیہ	-6141
توت	-6142
تھا	-6143
تیس	-6144
جیو	-6145
حیک	-6146
درد	-6147
درن	-6148
دیل	-6149
دیں	-6150
ربڑ	-6151
روش	-6152
ریح	-6153
زیہ	-6154
شات	-6155
شیخ	-6156
طری	-6157
طفی	-6158
ظیر	-6159
عور	-6160
عین	-6161
فرا	-6162
فرم	-6163
فکر	-6164
فیر	-6165
قبل	-6166
قسم	-6167
لسی	-6168
لغت	-6169
لفظ	-6170
لٹن	-6171
لڈن	-6172
میض	-6173
نری	-6174
نکی	-6175
وزڈ	-6176
ولپ	-6177
وٹس	-6178
ٹنی	-6179
ٹکس	-6180
پٹس	-6181
چیز	-6182
ڈان	-6183
ڈرز	-6184
ڈرچ	-6185
ڑان	-6186
کیب	-6187
گرا	-6188
گیڈ	-6189
یلم	-6190
▁بك	-6191
▁تپ	-6192
▁جک	-6193
▁خم	-6194
▁رب	-6195
▁ضو	-6196
▁مچ	-6197
▁هو	-6198
▁ود	-6199
▁وظ	-6200
▁ٹف	-6201
▁پٹ	-6202
▁چم	-6203
▁ہڈ	-6204
ؤنٹس	-6205
ارگٹ	-6206
البا	-6207
البہ	-6208
الحق	-6209
الٹی	-6210
الیب	-6211
اموش	-6212
اندی	-6213
انیت	-6214
اکین	-6215
اییی	-6216
بخود	-6217
بہتر	-6218
تابھ	-6219
تایو	-6220
جواب	-6221
جہاں	-6222
جیکٹ	-6223
خراش	-6224
دورہ	-6225
ذبذب	-6226
راہی	-6227
رفیس	-6228
رگاہ	-6229
زمیہ	-6230
ساری	-6231
ساٹھ	-6232
سایل	-6233
ستار	-6234
ستجو	-6235
سطور	-6236
سٹال	-6237
شاہد	-6238
شیوں	-6239
طینی	-6240
قیقہ	-6241
لسما	-6242
لیٹر	-6243
مبرگ	-6244
متیں	-6245
مدات	-6246
ملکی	-6247
نانی	-6248
ندیل	-6249
نویت	-6250
نٹوں	-6251
نکنی	-6252
نکھی	-6253
نیکل	-6254
وارا	-6255
والہ	-6256
وحین	-6257
وخال	-6258
ودوں	-6259
وریت	-6260
وزیر	-6261
ولبر	-6262
ویمن	-6263
پوری	-6264
چلتا	-6265
کاسٹ	-6266
کلاں	-6267
کورہ	-6268
گرنہ	-6269
گریب	-6270
گوگل	-6271
ھانی	-6272
ہلیت	-6273
ینڈل	-6274
ییفا	-6275
▁اان	-6276
▁الغ	-6277
▁اوٹ	-6278
▁اپی	-6279
▁ایت	-6280
▁باگ	-6281
▁بوم	-6282
▁بچھ	-6283
▁بیج	-6284
▁تاح	-6285
▁تان	-6286
▁تکی	-6287
▁تھر	-6288
▁ججی	-6289
▁جدہ	-6290
▁جھک	-6291
▁جیل	-6292
▁حرف	-6293
▁حسد	-6294
▁حصه	-6295
▁خرم	-6296
▁خوا	-6297
▁دمی	-6298
▁رزق	-6299
▁رسم	-6300
▁ریپ	-6301
▁ریڈ	-6302
▁زند	-6303
▁زین	-6304
▁سؤر	-6305
▁سخن	-6306
▁شفا	-6307
▁شمش	-6308
▁صحن	-6309
▁صدف	-6310
▁صفت	-6311
▁صنم	-6312
▁صوب	-6313
▁صیح	-6314
▁ضرب	-6315
▁طبع	-6316
▁عین	-6317
▁غار	-6318
▁غضب	-6319
▁فاش	-6320
▁فال	-6321
▁فام	-6322
▁فنش	-6323
▁فول	-6324
▁قبا	-6325
▁قفس	-6326
▁لتی	-6327
▁مات	-6328
▁مرچ	-6329
▁مسخ	-6330
▁مشا	-6331
▁نخو	-6332
▁نشہ	-6333
▁نفی	-6334
▁نوا	-6335
▁نگہ	-6336
▁نیٹ	-6337
▁ومب	-6338
▁پمز	-6339
▁پٹھ	-6340
▁پڑو	-6341
▁پہل	-6342
▁چاک	-6343
▁چول	-6344
▁چیٹ	-6345
▁چیڑ	-6346
▁ڈرا	-6347
▁ڈور	-6348
▁ڈیٹ	-6349
▁ڈیپ	-6350
▁کاق	-6351
▁کلی	-6352
▁کوس	-6353
▁کچا	-6354
▁کچن	-6355
▁کیع	-6356
▁گرج	-6357
▁گرل	-6358
▁گیٹ	-6359
▁ہاش	-6360
▁ہلا	-6361
▁ہیا	-6362
▁یکم	-6363
الدین	-6364
امزاج	-6365
ایونٹ	-6366
بوڈیا	-6367
تالیس	-6368
تبدیل	-6369
ثیایی	-6370
داخلہ	-6371
داران	-6372
دیانت	-6373
رافیہ	-6374
رافیی	-6375
ستانہ	-6376
سٹمنٹ	-6377
شمالی	-6378
عدلیہ	-6379
فیوزڈ	-6380
قسمتی	-6381
لیمان	-6382
میزون	-6383
نٹیفک	-6384
نٹیکی	-6385
نڈورا	-6386
نگیتا	-6387
ولوجی	-6388
ومدار	-6389
ٹیریا	-6390
چاہیی	-6391
چھوٹی	-6392
ڈیشین	-6393
کرایب	-6394
کرونی	-6395
کلپٹس	-6396
گھنٹی	-6397
گینون	-6398
ھارٹی	-6399
ھلیمی	-6400
ہرایا	-6401
ہریلا	-6402
▁اؤبس	-6403
▁اجرا	-6404
▁اجکل	-6405
▁احیا	-6406
▁اراپ	-6407
▁ارشد	-6408
▁اسلم	-6409
▁اشرف	-6410
▁اصلا	-6411
▁اصلی	-6412
▁اغوش	-6413
▁امیج	-6414
▁اندا	-6415
▁انمٹ	-6416
▁اوبر	-6417
▁اوسط	-6418
▁اٹلی	-6419
▁اپیل	-6420
▁اچھل	-6421
▁اکشر	-6422
▁اکھا	-6423
▁ایرک	-6424
▁بتاؤ	-6425
▁بجای	-6426
▁بددل	-6427
▁بوسہ	-6428
▁بچای	-6429
▁بکھی	-6430
▁بھرم	-6431
▁بھیس	-6432
▁بھیگ	-6433
▁بہنی	-6434
▁تاجر	-6435
▁تضاد	-6436
▁تلفظ	-6437
▁تنکا	-6438
▁توڑا	-6439
▁تکنی	-6440
▁تییں	-6441
▁جلسہ	-6442
▁جلسی	-6443
▁جلوی	-6444
▁جنات	-6445
▁جنتی	-6446
▁جوبن	-6447
▁جوتی	-6448
▁جہان	-6449
▁جہتی	-6450
▁جیمی	-6451
▁حاضر	-6452
▁حربہ	-6453
▁خبری	-6454
▁خزاں	-6455
▁خضوع	-6456
▁خطوں	-6457
▁خلوص	-6458
▁داسو	-6459
▁درود	-6460
▁دلوا	-6461
▁دلیر	-6462
▁دوری	-6463
▁دوڑا	-6464
▁دھوم	-6465
▁دیسی	-6466
▁راجر	-6467
▁راکھ	-6468
▁رحمی	-6469
▁رخصت	-6470
▁رنگا	-6471
▁روتا	-6472
▁روزی	-6473
▁روما	-6474
▁رگبی	-6475
▁زرمب	-6476
▁سالن	-6477
▁ساٹھ	-6478
▁سجتا	-6479
▁سرکس	-6480
▁سطحی	-6481
▁سماں	-6482
▁سمیٹ	-6483
▁سننا	-6484
▁سوتی	-6485
▁سورو	-6486
▁سوفی	-6487
▁سیال	-6488
▁سیاہ	-6489
▁شادو	-6490
▁شایر	-6491
▁شوخی	-6492
▁شکنی	-6493
▁شہرہ	-6494
▁شیعہ	-6495
▁صبری	-6496
▁صدقہ	-6497
▁طریق	-6498
▁طناز	-6499
▁عراق	-6500
▁عروہ	-6501
▁عزیر	-6502
▁عطاء	-6503
▁عنصر	-6504
▁غنڈہ	-6505
▁غورو	-6506
▁فایی	-6507
▁فراڈ	-6508
▁فلمز	-6509
▁فلور	-6510
▁فیصل	-6511
▁فیول	-6512
▁قتال	-6513
▁قمیض	-6514
▁لاتی	-6515
▁لایم	-6516
▁لطیف	-6517
▁لمحۂ	-6518
▁لمحی	-6519
▁لومۃ	-6520
▁لٹکا	-6521
▁لیول	-6522
▁لیٹر	-6523
▁مانا	-6524
▁ماچس	-6525
▁مبشر	-6526
▁محرک	-6527
▁مریخ	-6528
▁مستع	-6529
▁معطل	-6530
▁منطق	-6531
▁منیب	-6532
▁مواد	-6533
▁موثر	-6534
▁ندوی	-6535
▁نسلی	-6536
▁نظیر	-6537
▁نقاب	-6538
▁نگاہ	-6539
▁نیکی	-6540
▁وادر	-6541
▁وصال	-6542
▁وقار	-6543
▁وہتو	-6544
▁ٹکڑی	-6545
▁ٹھاٹ	-6546
▁پتہ۔	-6547
▁پرور	-6548
▁پروم	-6549
▁پرچی	-6550
▁پستہ	-6551
▁پوجا	-6552
▁پونی	-6553
▁پکڑا	-6554
▁پیاز	-6555
▁پیتا	-6556
▁پیرا	-6557
▁پیٹھ	-6558
▁چالو	-6559
▁چندی	-6560
▁چودہ	-6561
▁ڈبیا	-6562
▁ڈگری	-6563
▁ڈھلی	-6564
▁ڈیڑھ	-6565
▁کاشت	-6566
▁کثیر	-6567
▁کرام	-6568
▁کروٹ	-6569
▁کرہی	-6570
▁کسان	-6571
▁کشمی	-6572
▁کلچر	-6573
▁کوزی	-6574
▁کوڑا	-6575
▁کٹوا	-6576
▁کھاؤ	-6577
▁کھنچ	-6578
▁کھین	-6579
▁کھیپ	-6580
▁کہلا	-6581
▁کہوں	-6582
▁کیرب	-6583
▁کیون	-6584
▁کیوی	-6585
▁کیں۔	-6586
▁گالف	-6587
▁گالی	-6588
▁گردن	-6589
▁گرہن	-6590
▁گوبر	-6591
▁ہولی	-6592
▁ہیری	-6593
انونیت	-6594
اییکنگ	-6595
رہماری	-6596
سٹرافی	-6597
سٹریشن	-6598
لسماتی	-6599
مقابلہ	-6600
ولپنڈی	-6601
ٹریکشن	-6602
پیٹرول	-6603
کیبازی	-6604
گزینڈر	-6605
▁ابلیس	-6606
▁اثاثہ	-6607
▁اجاتی	-6608
▁ارادی	-6609
▁اربوں	-6610
▁ارڑان	-6611
▁اسایش	-6612
▁اسرار	-6613
▁اسماں	-6614
▁اشیاء	-6615
▁اطفال	-6616
▁اعداد	-6617
▁افکار	-6618
▁افیشل	-6619
▁اقرار	-6620
▁البرٹ	-6621
▁الجاز	-6622
▁الحال	-6623
▁الشیخ	-6624
▁الطاف	-6625
▁الوقت	-6626
▁امداد	-6627
▁امدنی	-6628
▁امدید	-6629
▁انسٹا	-6630
▁انفرا	-6631
▁اورنی	-6632
▁اوکھی	-6633
▁اوگرا	-6634
▁اٹلان	-6635
▁اکایی	-6636
▁اگانی	-6637
▁اگاہی	-6638
▁ایشوز	-6639
▁ایلیا	-6640
▁باجوہ	-6641
▁باسکٹ	-6642
▁بالكل	-6643
▁باندی	-6644
▁بخاری	-6645
▁بخوبی	-6646
▁بدلتا	-6647
▁برویی	-6648
▁برکات	-6649
▁بزدار	-6650
▁بسیرا	-6651
▁بكواس	-6652
▁بلڈنگ	-6653
▁بناوٹ	-6654
▁بندوق	-6655
▁بوریت	-6656
▁بولنا	-6657
▁بچانی	-6658
▁بھولی	-6659
▁بھینٹ	-6660
▁بہانہ	-6661
▁بہانی	-6662
▁بیروت	-6663
▁تاریک	-6664
▁تجزیہ	-6665
▁تحسین	-6666
▁تذبذب	-6667
▁تضحیک	-6668
▁تعیلم	-6669
▁تماشہ	-6670
▁تنازع	-6671
▁تکفیر	-6672
▁ثانیہ	-6673
▁جامعہ	-6674
▁جاننا	-6675
▁جانیں	-6676
▁جستجو	-6677
▁جملوں	-6678
▁جوانی	-6679
▁جھٹکی	-6680
▁خبروں	-6681
▁خدشات	-6682
▁خزانی	-6683
▁خوانی	-6684
▁داخلی	-6685
▁داروں	-6686
▁داڑھی	-6687
▁دبایو	-6688
▁دکھاؤ	-6689
▁دھاری	-6690
▁دیوار	-6691
▁ذایقہ	-6692
▁راجیو	-6693
▁راشدہ	-6694
▁راموز	-6695
▁راموس	-6696
▁راونڈ	-6697
▁رزمیہ	-6698
▁رعایت	-6699
▁رنگین	-6700
▁روندا	-6701
▁رونما	-6702
▁زاویی	-6703
▁زخموں	-6704
▁زیریں	-6705
▁سجایا	-6706
▁سلیقہ	-6707
▁سلیقی	-6708
▁سنبھل	-6709
▁سنگین	-6710
▁سونپا	-6711
▁سچایی	-6712
▁سینما	-6713
▁سینیٹ	-6714
▁سیکھی	-6715
▁شاعرہ	-6716
▁شبانہ	-6717
▁شرافت	-6718
▁شعوری	-6719
▁صلیبی	-6720
▁ضابطی	-6721
▁ضوابط	-6722
▁طلباء	-6723
▁غالبا	-6724
▁فالتو	-6725
▁قسمیں	-6726
▁قندیل	-6727
▁قواعد	-6728
▁لکھوں	-6729
▁لکھیں	-6730
▁لگایا	-6731
▁لہروں	-6732
▁مادری	-6733
▁ماسٹر	-6734
▁مانگو	-6735
▁مانگی	-6736
▁متحرک	-6737
▁محبوب	-6738
▁مخمصی	-6739
▁مروجہ	-6740
▁مسلیی	-6741
▁مشکوک	-6742
▁مصطفی	-6743
▁مصنفہ	-6744
▁مطلوب	-6745
▁مظالم	-6746
▁ملاوٹ	-6747
▁منصور	-6748
▁منٹوں	-6749
▁موزوں	-6750
▁موڈرچ	-6751
▁میاؤں	-6752
▁مینڈک	-6753
▁میٹرو	-6754
▁ناشتہ	-6755
▁نظریی	-6756
▁نمازی	-6757
▁نکھوں	-6758
▁نگاری	-6759
▁والی۔	-6760
▁واٹسن	-6761
▁واپڈا	-6762
▁وظایف	-6763
▁ولیمز	-6764
▁وولبر	-6765
▁وگرنہ	-6766
▁ویران	-6767
▁ٹارگٹ	-6768
▁ٹاکری	-6769
▁ٹرایی	-6770
▁ٹپکتا	-6771
▁ٹکٹری	-6772
▁پایی۔	-6773
▁پرواہ	-6774
▁پنکھا	-6775
▁پنکھی	-6776
▁پودوں	-6777
▁پڑھتا	-6778
▁پکوان	-6779
▁پکڑنا	-6780
▁پھندہ	-6781
▁پھولی	-6782
▁چالاک	-6783
▁چاندی	-6784
▁چاٹتی	-6785
▁چاہیۓ	-6786
▁چاییی	-6787
▁چلانا	-6788
▁چمکتی	-6789
▁چھٹیں	-6790
▁چھڑکا	-6791
▁چیختا	-6792
▁چیکنگ	-6793
▁ڈیبیو	-6794
▁کاٹتی	-6795
▁کدورت	-6796
▁کرتوت	-6797
▁کررہا	-6798
▁کرسکی	-6799
▁کرلیں	-6800
▁کماتی	-6801
▁کنفرم	-6802
▁کنٹری	-6803
▁کوکچھ	-6804
▁کیاہی	-6805
▁کیحسن	-6806
▁کینری	-6807
▁کیوں۔	-6808
▁گرگیا	-6809
▁گیانا	-6810
▁ہاؤسز	-6811
▁ہمدرد	-6812
▁ہملٹن	-6813
▁ہڈیاں	-6814
▁ہیومن	-6815
▁ہیکرز	-6816
▁ہییرا	-6817
▁یکساں	-6818
ربڑھاتی	-6819
▁اتارنی	-6820
▁ادھورا	-6821
▁اساسات	-6822
▁اسالیب	-6823
▁اسٹیشن	-6824
▁اسکندر	-6825
▁افریقی	-6826
▁الاسٹک	-6827
▁السطور	-6828
▁الہامی	-6829
▁انسٹال	-6830
▁اورایک	-6831
▁اورکیا	-6832
▁ایشیاء	-6833
▁بخارات	-6834
▁برتایو	-6835
▁بریگیڈ	-6836
▁بچاییں	-6837
▁بڑھاتا	-6838
▁بڑھایا	-6839
▁بھروسی	-6840
▁بھلایی	-6841
▁بینظیر	-6842
▁بیٹھتا	-6843
▁بیٹھنا	-6844
▁تربیتی	-6845
▁تفصیلی	-6846
▁تنظیم۔	-6847
▁تھوکیی	-6848
▁تہذیبی	-6849
▁جامعات	-6850
▁جاہلیت	-6851
▁خالصتا	-6852
▁خدوخال	-6853
▁خواہاں	-6854
▁داریوں	-6855
▁دلخراش	-6856
▁دوساٹھ	-6857
▁دکھاتی	-6858
▁دہرانی	-6859
▁رعنایی	-6860
▁روٹیاں	-6861
▁روٹیوں	-6862
▁رہنمای	-6863
▁ریفنڈز	-6864
▁زہریلا	-6865
▁سامعین	-6866
▁سمجھای	-6867
▁سناییں	-6868
▁سنجیدہ	-6869
▁سنگیتا	-6870
▁سورونو	-6871
▁سویلین	-6872
▁سیبہتر	-6873
▁سینڈوچ	-6874
▁سیکھتا	-6875
▁سیکھنی	-6876
▁شکستوں	-6877
▁صوبایی	-6878
▁طاقتوں	-6879
▁عادتوں	-6880
▁غلاموں	-6881
▁فامولا	-6882
▁فایدہ۔	-6883
▁فراموش	-6884
▁فلورین	-6885
▁كورونا	-6886
▁لاطینی	-6887
▁لکھاری	-6888
▁لگایی۔	-6889
▁لگوایی	-6890
▁لیڈروں	-6891
▁مالکان	-6892
▁مانگتی	-6893
▁ماہتاب	-6894
▁ماییکل	-6895
▁محاذوں	-6896
▁مذکورہ	-6897
▁مضایقہ	-6898
▁معنویت	-6899
▁مفاہمت	-6900
▁منقسمہ	-6901
▁مکالمی	-6902
▁ناردرن	-6903
▁ناقدین	-6904
▁ناکافی	-6905
▁نخواہی	-6906
▁نمونوں	-6907
▁نکالتا	-6908
▁واردات	-6909
▁وارمنگ	-6910
▁وزرایی	-6911
▁ومبلڈن	-6912
▁ٹایروں	-6913
▁ٹریننگ	-6914
▁ٹریڈنگ	-6915
▁ٹھکانی	-6916
▁پارکنگ	-6917
▁پرفیکٹ	-6918
▁پرکھنی	-6919
▁پنجابی	-6920
▁پولٹکس	-6921
▁پھرلغت	-6922
▁پہچان۔	-6923
▁پیمانہ	-6924
▁پیٹرول	-6925
▁چاہتا۔	-6926
▁چھوڑنا	-6927
▁چھوڑوں	-6928
▁ڈریسنگ	-6929
▁ڈیزاین	-6930
▁کاغذات	-6931
▁کامران	-6932
▁کتابوں	-6933
▁کرایا۔	-6934
▁کرواتا	-6935
▁کروانا	-6936
▁کروڑوں	-6937
▁کلہاڑی	-6938
▁کوالٹی	-6939
▁کوششوں	-6940
▁کھاییں	-6941
▁کھولتا	-6942
▁کھولنی	-6943
▁کیجیی۔	-6944
▁کیمرون	-6945
▁کیپاؤں	-6946
▁کیپسول	-6947
▁گاہکوں	-6948
▁گریباں	-6949
▁گزارا۔	-6950
▁گزاریں	-6951
▁ہالینڈ	-6952
▁ہونٹوں	-6953
▁ہونیتک	-6954
▁ہوگیی۔	-6955
▁ہیمبرگ	-6956
▁یوییفا	-6957
ساینٹیفک	-6958
کرونیشیا	-6959
▁اانکشاف	-6960
▁اتھارٹی	-6961
▁احساسات	-6962
▁اراپاہو	-6963
▁استقامت	-6964
▁استقبال	-6965
▁امیتابھ	-6966
▁انٹرفیس	-6967
▁انگلیاں	-6968
▁اولادوں	-6969
▁اولمپکس	-6970
▁اٹھاییں	-6971
▁اکاؤنٹس	-6972
▁اکایونٹ	-6973
▁ایتھلیٹ	-6974
▁ایمیزون	-6975
▁باشندوں	-6976
▁باغبانی	-6977
▁باکسروں	-6978
▁براییڈل	-6979
▁بمقابلہ	-6980
▁بنتاہی۔	-6981
▁بندرگاہ	-6982
▁بکھیرنی	-6983
▁بھونکتی	-6984
▁بیٹھتی۔	-6985
▁بیٹھییی	-6986
▁تحریریں	-6987
▁تیاریوں	-6988
▁جغرافیی	-6989
▁حکومتوں	-6990
▁حیثیتیں	-6991
▁حیوانات	-6992
▁خواہشوں	-6993
▁خودبخود	-6994
▁دوستانہ	-6995
▁دہندگان	-6996
▁راییڈرز	-6997
▁راییڈنگ	-6998
▁ریاستوں	-6999
▁سفرنامہ	-7000
▁سنبھالا	-7001
▁سنبھالو	-7002
▁سنچریاں	-7003
▁سہولیات	-7004
▁شاعرانہ	-7005
▁صنعتکار	-7006
▁ضیاالحق	-7007
▁طلسماتی	-7008
▁عبداللہ	-7009
▁علاقایی	-7010
▁عیاشیوں	-7011
▁غوروفکر	-7012
▁غیرملکی	-7013
▁فاییٹرز	-7014
▁مخلوقات	-7015
▁مفتوحین	-7016
▁مقابلوں	-7017
▁مچھلیاں	-7018
▁نامزدگی	-7019
▁نقصانات	-7020
▁نورجہاں	-7021
▁نگہبانی	-7022
▁وابستگی	-7023
▁واشنگٹن	-7024
▁ٹماٹروں	-7025
▁ٹھہرایا	-7026
▁پراجیکٹ	-7027
▁پوڈکاسٹ	-7028
▁پھیلانی	-7029
▁پیمانوں	-7030
▁ڈھنڈورا	-7031
▁کمبوڈیا	-7032
▁کمیونٹی	-7033
▁کنفیوزڈ	-7034
▁کیمسایل	-7035
▁کینٹیکی	-7036
▁گنواییں	-7037
▁ہاییکنگ	-7038
▁ہوتیہیں	-7039
▁یوکلپٹس	-7040
اسکتاوزیر	-7041
لاقانونیت	-7042
▁اداکاروں	-7043
▁انٹریکشن	-7044
▁اورعدلیہ	-7045
▁برتھلیمی	-7046
▁حکمرانوں	-7047
▁دارومدار	-7048
▁راولپنڈی	-7049
▁رجسٹریشن	-7050
▁زرمبادلہ	-7051
▁سبسکرایب	-7052
▁عایدکرتی	-7053
▁نظرانداز	-7054
▁وزیراعلی	-7055
▁پارلیمان	-7056
▁پروفیشنل	-7057
▁ڈیسکگوگل	-7058
▁کارروایی	-7059
▁کارڈیشین	-7060
▁کامطالبہ	-7061
▁کشمیرمیں	-7062
▁گھبراییی	-7063
▁ہسپتالوں	-7064
▁ہونیوالی	-7065
بیوروکریسی	-7066
ربڑھاتیہیں	-7067
چاہییہارون	-7068
▁الیگزینڈر	-7069
▁انسٹاگرام	-7070
▁خاطرہماری	-7071
▁دھوکیبازی	-7072
▁ریگولیٹری	-7073
▁عبدالستار	-7074
▁عربپیٹرول	-7075
▁ٹیکنولوجی	-7076
▁پاکستانیت	-7077
▁کارلوٹینس	-7078
▁کاشتکاروں	-7079
▁ہالیگینون	-7080
▁ہزارچھوٹی	-7081
▁ہمارامزاج	-7082
▁کاررواییاں	-7083
▁ہییراسٹایل	-7084
▁اقتدارتبدیل	-7085
▁امریکاشمالی	-7086
▁انڈونیثیایی	-7087
▁دسمبرایجنسی	-7088
▁مایکرونیشیا	-7089
▁پریکٹسٹرافی	-7090
▁سرگرمیاںمعطل	-7091
اسکتاوزیرداخلہ	-7092
▁جاناچاہییہارون	-7093
▁پریشربڑھاتیہیں	-7094
دم	-7095
لص	-7096
ڈن	-7097
انص	-7098
انٹ	-7099
تا۔	-7100
مزہ	-7101
ولہ	-7102
▁رت	-7103
▁یش	-7104
اہری	-7105
دارت	-7106
سیلہ	-7107
عراء	-7108
ونکا	-7109
ڈیشن	-7110
▁اخذ	-7111
▁توف	-7112
▁جاۓ	-7113
▁جڑی	-7114
▁زکو	-7115
▁سرش	-7116
▁سوٹ	-7117
▁شیخ	-7118
▁لاد	-7119
▁نرا	-7120
▁نہج	-7121
▁ویس	-7122
▁پاش	-7123
▁پلی	-7124
▁پیو	-7125
▁چوپ	-7126
▁کشت	-7127
▁کود	-7128
▁گنگ	-7129
▁ہرن	-7130
▁یمن	-7131
شیاری	-7132
لاعات	-7133
▁امیہ	-7134
▁انٹی	-7135
▁ایند	-7136
▁تجلی	-7137
▁تھکا	-7138
▁تیور	-7139
▁جالب	-7140
▁جاکر	-7141
▁جبڑا	-7142
▁جرات	-7143
▁جلتی	-7144
▁جنوب	-7145
▁خادم	-7146
▁دیوب	-7147
▁راکٹ	-7148
▁طرح۔	-7149
▁عبور	-7150
▁فونز	-7151
▁فوٹو	-7152
▁لایف	-7153
▁مارک	-7154
▁مخلص	-7155
▁مظہر	-7156
▁موٹا	-7157
▁نوبت	-7158
▁وحشت	-7159
▁چھڑی	-7160
▁چیدہ	-7161
▁ڈراف	-7162
▁ڈنڈی	-7163
اریہاں	-7164
انصافی	-7165
▁الحاق	-7166
▁الودہ	-7167
▁امریت	-7168
▁اہلیہ	-7169
▁بوندا	-7170
▁توفیق	-7171
▁توقیر	-7172
▁جسوال	-7173
▁ذہنوں	-7174
▁ساختہ	-7175
▁سیلاب	-7176
▁شوٹنگ	-7177
▁صدارت	-7178
▁ظاہری	-7179
▁فاصلہ	-7180
▁لاچار	-7181
▁مراکز	-7182
▁معتبر	-7183
▁نرخوں	-7184
▁ٹویٹر	-7185
▁چونکا	-7186
▁ڈایری	-7187
▁کاروں	-7188
▁کامرس	-7189
▁کونسل	-7190
▁کیمیا	-7191
▁گرداں	-7192
▁ابھرتی	-7193
▁افزایی	-7194
▁بیچاری	-7195
▁حیرانی	-7196
▁غلطیوں	-7197
▁مہرباں	-7198
▁پیمانی	-7199
▁گارنٹی	-7200
▁تفصیلات	-7201
▁سٹریلین	-7202
▁سکیورٹی	-7203
▁ہوشیاری	-7204
▁ناانصافی	-7205
▁سرشاریہاں	-7206
حمت	-7207
نیز	-7208
▁اجا	-7209
▁رست	-7210
▁شوٹ	-7211
▁لاؤ	-7212
▁گیب	-7213
قادری	-7214
لینڈز	-7215
▁روان	-7216
▁زحمت	-7217
▁لاگت	-7218
▁مانچ	-7219
▁نیدر	-7220
▁گندی	-7221
▁ہلکا	-7222
ولیایی	-7223
▁اسپنر	-7224
▁اورمی	-7225
▁ایوان	-7226
▁دھرتی	-7227
▁سسٹمز	-7228
▁سڑکیں	-7229
▁پرسنل	-7230
▁چھیڑی	-7231
▁کانگو	-7232
▁اہستہ۔	-7233
▁بالاخر	-7234
▁برازیل	-7235
▁بینکنگ	-7236
▁جارجیا	-7237
▁ملیالم	-7238
▁کیلیی۔	-7239
▁استعارہ	-7240
▁سنبھالی	-7241
▁نیدرلینڈز	-7242
''	-7243
بش	-7244
خم	-7245
زت	-7246
سۂ	-7247
شپ	-7248
طغ	-7249
غز	-7250
هی	-7251
چۂ	-7252
گن	-7253
▁ؓ	-7254
▁”	-7255
اؤن	-7256
ات۔	-7257
اد۔	-7258
الح	-7259
الض	-7260
اپی	-7261
بعد	-7262
بعض	-7263
بند	-7264
بچن	-7265
ثرہ	-7266
جوش	-7267
خوب	-7268
خور	-7269
دھا	-7270
دھر	-7271
دیہ	-7272
روڈ	-7273
سال	-7274
سطو	-7275
سنت	-7276
سیر	-7277
شام	-7278
ضاد	-7279
عبۂ	-7280
لکی	-7281
ماہ	-7282
میع	-7283
ناٹ	-7284
نظر	-7285
نہم	-7286
واگ	-7287
وتھ	-7288
وٹن	-7289
وڑا	-7290
ٹوڈ	-7291
ٹیک	-7292
پتہ	-7293
پنگ	-7294
چرڈ	-7295
چند	-7296
ڑکی	-7297
کاز	-7298
کشی	-7299
؟‘	-7300
بک	-7301
زگ	-7302
شم	-7303
نم	-7304
ڈ۔	-7305
▁-	-7306
ارض	-7307
اصح	-7308
جیم	-7309
غاز	-7310
فرب	-7311
لبی	-7312
کاک	-7313
کھن	-7314
گڑی	-7315
ھجن	-7316
ھوڑ	-7317
یای	-7318
یوم	-7319
▁ا۔	-7320
▁ثم	-7321
▁رش	-7322
▁زن	-7323
▁ضد	-7324
▁لغ	-7325
▁وخ	-7326
▁وپ	-7327
▁ٹم	-7328
▁ڈچ	-7329
ابقہ	-7330
ادثی	-7331
اصرہ	-7332
الین	-7333
انتی	-7334
اکید	-7335
اہیم	-7336
اہیں	-7337
ایڈل	-7338
بانگ	-7339
بخار	-7340
بودا	-7341
بھتی	-7342
تاسی	-7343
ترمہ	-7344
تیلہ	-7345
جاجی	-7346
جانب	-7347
جمعی	-7348
حاشی	-7349
حیفہ	-7350
خبری	-7351
دانی	-7352
دریج	-7353
دمنی	-7354
دودی	-7355
دیتی	-7356
رتسر	-7357
رسول	-7358
روبا	-7359
ریال	-7360
زملا	-7361
زیگو	-7362
سایٹ	-7363
شالا	-7364
شوٹر	-7365
شٹرا	-7366
صحیح	-7367
طغرل	-7368
عموم	-7369
عنان	-7370
فتیش	-7371
قومی	-7372
قیقی	-7373
لکار	-7374
مرکر	-7375
مزاج	-7376
مقصد	-7377
مپٹن	-7378
ندرز	-7379
ندری	-7380
ندکی	-7381
ندھن	-7382
نگیس	-7383
نہیں	-7384
نیڈا	-7385
وتری	-7386
وروس	-7387
وسفی	-7388
وعیت	-7389
ونسر	-7390
ونیم	-7391
ٹروک	-7392
پرنگ	-7393
پورا	-7394
پیدا	-7395
چھاڑ	-7396
ڈیسک	-7397
کٹھی	-7398
گویی	-7399
جک	-7400
طخ	-7401
غل	-7402
وپ	-7403
پڑ	-7404
▁“	-7405
دلی	-7406
قوف	-7407
ووں	-7408
پھر	-7409
ہاک	-7410
▁سل	-7411
ادرب	-7412
اوار	-7413
تیوں	-7414
ریفک	-7415
منوع	-7416
نسار	-7417
وپیا	-7418
یدگی	-7419
یوتھ	-7420
▁اشع	-7421
▁انو	-7422
▁اوہ	-7423
▁ایب	-7424
▁بتی	-7425
▁بدا	-7426
▁بدی	-7427
▁برش	-7428
▁بشر	-7429
▁بطخ	-7430
▁بقی	-7431
▁بٹس	-7432
▁بیگ	-7433
▁تجز	-7434
▁جای	-7435
▁جسک	-7436
▁جول	-7437
▁جیا	-7438
▁حاک	-7439
▁حرص	-7440
▁حیف	-7441
▁خشک	-7442
▁خلش	-7443
▁خور	-7444
▁دال	-7445
▁دام	-7446
▁دشم	-7447
▁دوا	-7448
▁دھن	-7449
▁دہل	-7450
▁دیہ	-7451
▁ربڑ	-7452
▁رضا	-7453
▁رکی	-7454
▁زار	-7455
▁زای	-7456
▁زلف	-7457
▁زید	-7458
▁ساد	-7459
▁سرک	-7460
▁سچن	-7461
▁شاء	-7462
▁صاب	-7463
▁صفا	-7464
▁طاق	-7465
▁طفی	-7466
▁طیش	-7467
▁ظفر	-7468
▁فصل	-7469
▁فطر	-7470
▁فنی	-7471
▁قاع	-7472
▁قای	-7473
▁قضا	-7474
▁قول	-7475
▁لڑی	-7476
▁لگن	-7477
▁لیب	-7478
▁متب	-7479
▁مخد	-7480
▁مدر	-7481
▁میت	-7482
▁نجم	-7483
▁نرس	-7484
▁نسب	-7485
▁نصف	-7486
▁نمب	-7487
▁نیز	-7488
▁نی۔	-7489
▁واز	-7490
▁وحد	-7491
▁وزر	-7492
▁وسط	-7493
▁وقع	-7494
▁ولن	-7495
▁وین	-7496
▁ٹہل	-7497
▁پام	-7498
▁پخت	-7499
ؤ۔	-7500
بان	-7501
نوا	-7502
پیٹ	-7503
▁بڈ	-7504
▁ذی	-7505
▁نت	-7506
▁پج	-7507
▁یخ	-7508
اتحت	-7509
اصمت	-7510
افظی	-7511
املہ	-7512
جارہ	-7513
مقدس	-7514
واقع	-7515
وینا	-7516
▁اکھ	-7517
▁بقا	-7518
▁بور	-7519
▁بکی	-7520
▁جلی	-7521
▁دلہ	-7522
▁ساس	-7523
▁غزل	-7524
▁فجی	-7525
▁لڑک	-7526
▁مسز	-7527
▁معر	-7528
▁مہر	-7529
▁واج	-7530
▁وڈی	-7531
▁ٹوک	-7532
▁پتی	-7533
▁پست	-7534
▁چشم	-7535
▁چمن	-7536
▁چمچ	-7537
▁چوم	-7538
▁چکھ	-7539
▁چیت	-7540
▁ڈان	-7541
▁ڈبی	-7542
▁کرش	-7543
▁کنک	-7544
▁کنگ	-7545
▁کنی	-7546
▁کو۔	-7547
▁گوا	-7548
▁گٹھ	-7549
▁ہام	-7550
▁ہتھ	-7551
▁ہجر	-7552
▁ہوپ	-7553
▁ہوۓ	-7554
▁ییی	-7555
ارکٹی	-7556
اریاں	-7557
ارینہ	-7558
اسانی	-7559
انکنی	-7560
انہیں	-7561
اکانا	-7562
اکیوں	-7563
ایمنڈ	-7564
اییکا	-7565
بالغہ	-7566
بنانا	-7567
جہاد۔	-7568
حاورہ	-7569
داعظم	-7570
ذرایع	-7571
ربننی	-7572
ربھجن	-7573
رفراز	-7574
رمایی	-7575
روشلم	-7576
روفیت	-7577
رکہنا	-7578
زگاری	-7579
سایٹی	-7580
سلمان	-7581
سٹروک	-7582
شعراء	-7583
طریقہ	-7584
عنوان	-7585
لادیش	-7586
لاییں	-7587
لوگوں	-7588
مہنگی	-7589
مینیم	-7590
نسروڈ	-7591
نگالا	-7592
واسطہ	-7593
وایا۔	-7594
ونسلی	-7595
ونشنز	-7596
ٹوڈنٹ	-7597
پرستی	-7598
پسندی	-7599
ضر	-7600
افق	-7601
برد	-7602
جھل	-7603
دہا	-7604
زدہ	-7605
صبی	-7606
متھ	-7607
وتہ	-7608
ودہ	-7609
ٹکن	-7610
ٹیڈ	-7611
چرز	-7612
گرس	-7613
ابقت	-7614
انٹی	-7615
لیگی	-7616
وبار	-7617
ٹیاں	-7618
▁اہو	-7619
▁حرب	-7620
▁رقی	-7621
▁شین	-7622
▁قون	-7623
▁لون	-7624
▁ٹیل	-7625
▁یاح	-7626
رداری	-7627
پیوٹن	-7628
کرگیا	-7629
گیروں	-7630
ھایا۔	-7631
یابین	-7632
۔۔جاؤ	-7633
▁ابرو	-7634
▁اجمل	-7635
▁ارتھ	-7636
▁ازبک	-7637
▁اسسٹ	-7638
▁الٹا	-7639
▁امیگ	-7640
▁انجو	-7641
▁انشا	-7642
▁انٹل	-7643
▁اورب	-7644
▁اورج	-7645
▁اور۔	-7646
▁اپکی	-7647
▁اگاہ	-7648
▁اگست	-7649
▁اگلا	-7650
▁ایرس	-7651
▁ایلو	-7652
▁ایمز	-7653
▁اینج	-7654
▁بابر	-7655
▁بابل	-7656
▁باسط	-7657
▁بالغ	-7658
▁بجی۔	-7659
▁بخار	-7660
▁برسر	-7661
▁برلن	-7662
▁برکت	-7663
▁بزدل	-7664
▁بستہ	-7665
▁بسری	-7666
▁بقیہ	-7667
▁بلاک	-7668
▁بلیم	-7669
▁بلیک	-7670
▁بنجر	-7671
▁بوتل	-7672
▁بوتی	-7673
▁بولٹ	-7674
▁بونا	-7675
▁بچار	-7676
▁بچنی	-7677
▁بڈھا	-7678
▁بکرا	-7679
▁بگلی	-7680
▁بھوج	-7681
▁بھیڑ	-7682
▁بہتی	-7683
▁بہری	-7684
▁بینا	-7685
▁تدری	-7686
▁تمنا	-7687
▁تناو	-7688
▁تندر	-7689
▁تنگی	-7690
▁تکثی	-7691
▁تکلف	-7692
▁تھپڑ	-7693
▁ثاقب	-7694
▁ثانی	-7695
▁جاؤ۔	-7696
▁جارح	-7697
▁جاین	-7698
▁جزوی	-7699
ختص	-7700
زید	-7701
صود	-7702
نان	-7703
ٹرن	-7704
کوچ	-7705
کوڈ	-7706
ہنی	-7707
یزڈ	-7708
رانا	-7709
رانک	-7710
روما	-7711
لیٹس	-7712
مختص	-7713
نڈال	-7714
نڈنگ	-7715
نگٹی	-7716
ٹرسا	-7717
کہری	-7718
▁افر	-7719
▁الح	-7720
▁دہی	-7721
▁ریم	-7722
▁فنڈ	-7723
▁ملہ	-7724
▁ونی	-7725
▁چھت	-7726
ایزرز	-7727
رانوں	-7728
سیریز	-7729
لایزڈ	-7730
وریوں	-7731
گاروں	-7732
▁اداب	-7733
▁افات	-7734
▁امنڈ	-7735
▁جاجا	-7736
▁جبلی	-7737
▁جلتا	-7738
▁جنبش	-7739
▁جنید	-7740
▁جوشی	-7741
▁جوڈو	-7742
▁جوڑی	-7743
▁جوکہ	-7744
▁جچتا	-7745
▁جہنم	-7746
▁جہیز	-7747
▁حاشی	-7748
▁حدید	-7749
▁حرام	-7750
▁حسرت	-7751
▁حلیم	-7752
▁حمای	-7753
▁حمیت	-7754
▁خرقہ	-7755
▁خرچہ	-7756
▁خوار	-7757
▁دادی	-7758
▁داشت	-7759
▁دانی	-7760
▁دلدل	-7761
▁دھون	-7762
▁دھڑی	-7763
▁ذمرہ	-7764
▁راضی	-7765
▁راوی	-7766
▁رتھر	-7767
▁رسنل	-7768
▁رضیہ	-7769
▁رفیق	-7770
▁رقیب	-7771
▁رمیز	-7772
▁رومن	-7773
▁روکی	-7774
▁رچرڈ	-7775
▁رکنا	-7776
▁ریچل	-7777
▁زدور	-7778
▁زونگ	-7779
▁زیاں	-7780
▁زیدہ	-7781
▁سارت	-7782
▁سبزہ	-7783
▁سرور	-7784
▁سروی	-7785
▁سریی	-7786
▁سلیم	-7787
▁سمیع	-7788
▁سولر	-7789
▁سولہ	-7790
▁سویس	-7791
▁سکنی	-7792
▁سہمی	-7793
▁سیرت	-7794
▁سیشن	-7795
▁شاخس	-7796
▁شرعی	-7797
▁شلپا	-7798
▁شمال	-7799
طار	-7800
پول	-7801
گشت	-7802
ارہا	-7803
جنسی	-7804
حالی	-7805
داشت	-7806
دردی	-7807
رہوں	-7808
لوان	-7809
کرنی	-7810
▁اٹک	-7811
▁تک۔	-7812
▁ذمی	-7813
▁شبر	-7814
▁عجو	-7815
▁مدح	-7816
▁مرگ	-7817
▁منھ	-7818
▁میپ	-7819
▁نشر	-7820
▁ورق	-7821
▁چکر	-7822
الضحی	-7823
امیری	-7824
خصوصی	-7825
رترین	-7826
رمانی	-7827
نجھوڑ	-7828
وارتی	-7829
وراکو	-7830
پورٹس	-7831
▁بکنگ	-7832
▁ریکا	-7833
▁سٹاک	-7834
▁شکلا	-7835
▁شکوی	-7836
▁شیلی	-7837
▁صفوں	-7838
▁ضمیر	-7839
▁طرف۔	-7840
▁ظہبی	-7841
▁عبرت	-7842
▁عصمت	-7843
▁عطاف	-7844
▁علیؓ	-7845
▁عمرا	-7846
▁غرضی	-7847
▁غیبی	-7848
▁فارخ	-7849
▁فالو	-7850
▁فریب	-7851
▁فرین	-7852
▁فعال	-7853
▁فلاپ	-7854
▁فنون	-7855
▁فورم	-7856
▁فیکٹ	-7857
▁قابض	-7858
▁قاسم	-7859
▁قاصر	-7860
▁قداں	-7861
▁قرین	-7862
▁لاوا	-7863
▁لپیٹ	-7864
▁لگیں	-7865
▁لہجی	-7866
▁لیگز	-7867
▁مادھ	-7868
▁مایہ	-7869
▁متون	-7870
▁مجرم	-7871
▁مجلس	-7872
▁مذید	-7873
▁مرغی	-7874
▁مرقع	-7875
▁مروت	-7876
▁مسلح	-7877
▁مسور	-7878
▁مشرک	-7879
▁مشقت	-7880
▁مطلق	-7881
▁مطلو	-7882
▁معرض	-7883
▁ملی۔	-7884
▁مناۓ	-7885
▁منگل	-7886
▁مودت	-7887
▁مورو	-7888
▁مکھن	-7889
▁مکین	-7890
▁مینی	-7891
▁میڈل	-7892
▁میڈم	-7893
▁نازک	-7894
▁ناصح	-7895
▁نبرد	-7896
▁نزول	-7897
▁نوحہ	-7898
▁نوید	-7899
بوس	-7900
ختم	-7901
خدا	-7902
کسر	-7903
ایکس	-7904
جاتی	-7905
سودہ	-7906
نجیر	-7907
یایف	-7908
▁خرا	-7909
▁چکن	-7910
▁کسر	-7911
▁گرز	-7912
ھیروں	-7913
▁بارا	-7914
▁برسی	-7915
▁بندہ	-7916
▁تعال	-7917
▁جزاک	-7918
▁خدمت	-7919
▁درجۂ	-7920
▁سہیل	-7921
▁صمیم	-7922
▁طعنہ	-7923
▁نکات	-7924
▁نکمی	-7925
▁نہلا	-7926
▁نیلو	-7927
▁	-7928
ی	-7929
ا	-7930
ک	-7931
ر	-7932
ہ	-7933
و	-7934
ن	-7935
م	-7936
ت	-7937
س	-7938
ل	-7939
ب	-7940
ں	-7941
د	-7942
ھ	-7943
پ	-7944
ج	-7945
۔	-7946
گ	-7947
ف	-7948
ع	-7949
ٹ	-7950
ق	-7951
ش	-7952
ز	-7953
چ	-7954
ح	-7955
خ	-7956
ص	-7957
ڈ	-7958
ط	-7959
ڑ	-7960
ض	-7961
ظ	-7962
غ	-7963
؟	-7964
ذ	-7965
ث	-7966
،	-7967
ؤ	-7968
‘	-7969
ء	-7970
"	-7971
ۂ	-7972
'	-7973
ه	-7974
:	-7975
ژ	-7976
’	-7977
ۓ	-7978
ك	-7979
ۃ	-7980
ؔ	-7981
-	-7982
ؓ	-7983
“	-7984
.	-7985
ى	-7986
ي	-7987
ؑ	-7988
,	-7989
!	-7990
ے	-7991
؛	-7992
”	-7993
`	-7994
